unsigned char model_tflite[] = {
  0x1c, 0x00, 0x00, 0x00, 0x54, 0x46, 0x4c, 0x33, 0x14, 0x00, 0x20, 0x00,
  0x1c, 0x00, 0x18, 0x00, 0x14, 0x00, 0x10, 0x00, 0x0c, 0x00, 0x00, 0x00,
  0x08, 0x00, 0x04, 0x00, 0x14, 0x00, 0x00, 0x00, 0x1c, 0x00, 0x00, 0x00,
  0x8c, 0x00, 0x00, 0x00, 0xe4, 0x00, 0x00, 0x00, 0x00, 0x1e, 0x00, 0x00,
  0x10, 0x1e, 0x00, 0x00, 0xe0, 0x26, 0x00, 0x00, 0x03, 0x00, 0x00, 0x00,
  0x01, 0x00, 0x00, 0x00, 0x10, 0x00, 0x00, 0x00, 0x00, 0x00, 0x0a, 0x00,
  0x10, 0x00, 0x0c, 0x00, 0x08, 0x00, 0x04, 0x00, 0x0a, 0x00, 0x00, 0x00,
  0x0c, 0x00, 0x00, 0x00, 0x1c, 0x00, 0x00, 0x00, 0x38, 0x00, 0x00, 0x00,
  0x0f, 0x00, 0x00, 0x00, 0x73, 0x65, 0x72, 0x76, 0x69, 0x6e, 0x67, 0x5f,
  0x64, 0x65, 0x66, 0x61, 0x75, 0x6c, 0x74, 0x00, 0x01, 0x00, 0x00, 0x00,
  0x04, 0x00, 0x00, 0x00, 0x9c, 0xff, 0xff, 0xff, 0x16, 0x00, 0x00, 0x00,
  0x04, 0x00, 0x00, 0x00, 0x07, 0x00, 0x00, 0x00, 0x64, 0x65, 0x6e, 0x73,
  0x65, 0x5f, 0x31, 0x00, 0x01, 0x00, 0x00, 0x00, 0x04, 0x00, 0x00, 0x00,
  0xf2, 0xe1, 0xff, 0xff, 0x04, 0x00, 0x00, 0x00, 0x07, 0x00, 0x00, 0x00,
  0x69, 0x6e, 0x70, 0x75, 0x74, 0x5f, 0x31, 0x00, 0x02, 0x00, 0x00, 0x00,
  0x34, 0x00, 0x00, 0x00, 0x04, 0x00, 0x00, 0x00, 0xdc, 0xff, 0xff, 0xff,
  0x19, 0x00, 0x00, 0x00, 0x04, 0x00, 0x00, 0x00, 0x13, 0x00, 0x00, 0x00,
  0x43, 0x4f, 0x4e, 0x56, 0x45, 0x52, 0x53, 0x49, 0x4f, 0x4e, 0x5f, 0x4d,
  0x45, 0x54, 0x41, 0x44, 0x41, 0x54, 0x41, 0x00, 0x08, 0x00, 0x0c, 0x00,
  0x08, 0x00, 0x04, 0x00, 0x08, 0x00, 0x00, 0x00, 0x18, 0x00, 0x00, 0x00,
  0x04, 0x00, 0x00, 0x00, 0x13, 0x00, 0x00, 0x00, 0x6d, 0x69, 0x6e, 0x5f,
  0x72, 0x75, 0x6e, 0x74, 0x69, 0x6d, 0x65, 0x5f, 0x76, 0x65, 0x72, 0x73,
  0x69, 0x6f, 0x6e, 0x00, 0x1a, 0x00, 0x00, 0x00, 0x18, 0x1d, 0x00, 0x00,
  0x10, 0x1d, 0x00, 0x00, 0xc0, 0x1c, 0x00, 0x00, 0xa8, 0x1c, 0x00, 0x00,
  0x58, 0x1c, 0x00, 0x00, 0x48, 0x18, 0x00, 0x00, 0x38, 0x14, 0x00, 0x00,
  0x28, 0x10, 0x00, 0x00, 0x18, 0x0c, 0x00, 0x00, 0xc8, 0x0b, 0x00, 0x00,
  0x78, 0x0b, 0x00, 0x00, 0x28, 0x0b, 0x00, 0x00, 0xd8, 0x0a, 0x00, 0x00,
  0x88, 0x09, 0x00, 0x00, 0x38, 0x08, 0x00, 0x00, 0xe8, 0x06, 0x00, 0x00,
  0x98, 0x05, 0x00, 0x00, 0x88, 0x01, 0x00, 0x00, 0xf8, 0x00, 0x00, 0x00,
  0xa8, 0x00, 0x00, 0x00, 0xa0, 0x00, 0x00, 0x00, 0x98, 0x00, 0x00, 0x00,
  0x90, 0x00, 0x00, 0x00, 0x88, 0x00, 0x00, 0x00, 0x68, 0x00, 0x00, 0x00,
  0x04, 0x00, 0x00, 0x00, 0xce, 0xe2, 0xff, 0xff, 0x04, 0x00, 0x00, 0x00,
  0x54, 0x00, 0x00, 0x00, 0x0c, 0x00, 0x00, 0x00, 0x08, 0x00, 0x0e, 0x00,
  0x08, 0x00, 0x04, 0x00, 0x08, 0x00, 0x00, 0x00, 0x10, 0x00, 0x00, 0x00,
  0x24, 0x00, 0x00, 0x00, 0x00, 0x00, 0x06, 0x00, 0x08, 0x00, 0x04, 0x00,
  0x06, 0x00, 0x00, 0x00, 0x04, 0x00, 0x00, 0x00, 0x00, 0x00, 0x00, 0x00,
  0x00, 0x00, 0x0a, 0x00, 0x10, 0x00, 0x0c, 0x00, 0x08, 0x00, 0x04, 0x00,
  0x0a, 0x00, 0x00, 0x00, 0x01, 0x00, 0x00, 0x00, 0x02, 0x00, 0x00, 0x00,
  0x04, 0x00, 0x00, 0x00, 0x06, 0x00, 0x00, 0x00, 0x32, 0x2e, 0x31, 0x31,
  0x2e, 0x30, 0x00, 0x00, 0x2e, 0xe3, 0xff, 0xff, 0x04, 0x00, 0x00, 0x00,
  0x10, 0x00, 0x00, 0x00, 0x32, 0x2e, 0x30, 0x2e, 0x30, 0x00, 0x00, 0x00,
  0x00, 0x00, 0x00, 0x00, 0x00, 0x00, 0x00, 0x00, 0x18, 0xdb, 0xff, 0xff,
  0x1c, 0xdb, 0xff, 0xff, 0x20, 0xdb, 0xff, 0xff, 0x24, 0xdb, 0xff, 0xff,
  0x5a, 0xe3, 0xff, 0xff, 0x04, 0x00, 0x00, 0x00, 0x40, 0x00, 0x00, 0x00,
  0x00, 0x00, 0x00, 0x00, 0x00, 0x00, 0x00, 0x00, 0x00, 0x00, 0x00, 0x00,
  0x00, 0x00, 0x00, 0x00, 0x00, 0x00, 0x00, 0x00, 0x00, 0x00, 0x00, 0x00,
  0x00, 0x00, 0x00, 0x00, 0x00, 0x00, 0x00, 0x00, 0x00, 0x00, 0x00, 0x00,
  0x00, 0x00, 0x00, 0x00, 0x00, 0x00, 0x00, 0x00, 0x00, 0x00, 0x00, 0x00,
  0x00, 0x00, 0x00, 0x00, 0x00, 0x00, 0x00, 0x00, 0x00, 0x00, 0x00, 0x00,
  0x00, 0x00, 0x00, 0x00, 0xa6, 0xe3, 0xff, 0xff, 0x04, 0x00, 0x00, 0x00,
  0x80, 0x00, 0x00, 0x00, 0x9c, 0xfa, 0xf0, 0x3e, 0xf0, 0xd8, 0x12, 0x3f,
  0xd6, 0xb6, 0x56, 0xbf, 0x77, 0x77, 0x9d, 0xbf, 0xef, 0xa0, 0x54, 0x3f,
  0x5e, 0xb8, 0xb9, 0x3e, 0xba, 0xca, 0x39, 0x3f, 0x4e, 0x1e, 0x3c, 0x3f,
  0x84, 0x4c, 0x80, 0xbf, 0x62, 0x37, 0xb7, 0xbf, 0x03, 0x75, 0x9b, 0xbf,
  0x51, 0x61, 0x6e, 0xbf, 0xf5, 0x27, 0x2d, 0x3f, 0xab, 0x7a, 0x59, 0x3f,
  0x91, 0x63, 0xf1, 0xbf, 0x0b, 0xd9, 0x8e, 0x3f, 0x4d, 0x99, 0x70, 0xbf,
  0xc8, 0xb7, 0x3b, 0xbe, 0x2d, 0xb3, 0x8e, 0x3d, 0x2f, 0x9d, 0x02, 0x3f,
  0x5e, 0xa1, 0x95, 0xbf, 0xf3, 0x65, 0xab, 0xbf, 0x66, 0xdc, 0xa9, 0xbe,
  0x5e, 0xa8, 0x2e, 0xbf, 0x37, 0xca, 0x82, 0x3f, 0xe5, 0x76, 0x30, 0x3f,
  0x89, 0x32, 0xa8, 0x3f, 0xfa, 0xb0, 0xac, 0x3f, 0x05, 0x82, 0x08, 0xbf,
  0x0b, 0x98, 0x9a, 0xbf, 0x2f, 0x44, 0xa4, 0x3f, 0xb4, 0x57, 0x6e, 0xbf,
  0x32, 0xe4, 0xff, 0xff, 0x04, 0x00, 0x00, 0x00, 0x00, 0x04, 0x00, 0x00,
  0x2a, 0x56, 0xec, 0x3e, 0x46, 0x1b, 0x27, 0x3f, 0x7a, 0xa2, 0x79, 0x3e,
  0xdc, 0x7c, 0x4a, 0x3f, 0x76, 0x37, 0x99, 0xbd, 0x5b, 0x12, 0x92, 0xbf,
  0xed, 0xbf, 0x95, 0x3e, 0x19, 0xec, 0xf0, 0x3c, 0x00, 0x11, 0x90, 0xbe,
  0x78, 0xfd, 0x51, 0x3e, 0x44, 0xdb, 0x99, 0x3d, 0xf6, 0x17, 0x39, 0xbf,
  0x50, 0xda, 0x37, 0x3f, 0xe9, 0x46, 0xcf, 0x3e, 0xfa, 0x9e, 0x75, 0x3e,
  0x03, 0x70, 0x1e, 0xbb, 0x87, 0x1b, 0x95, 0x3e, 0xbf, 0x07, 0x8f, 0x3e,
  0xc9, 0xf1, 0x04, 0x3f, 0x96, 0x69, 0xc1, 0x3e, 0x22, 0xe4, 0x7b, 0xbd,
  0xab, 0xb5, 0xfc, 0xbe, 0x17, 0x94, 0x83, 0x3e, 0xa2, 0xf9, 0x13, 0x3e,
  0x90, 0xe2, 0xdc, 0xbe, 0xe5, 0x45, 0xa3, 0xbd, 0xcd, 0x6c, 0xc4, 0x3e,
  0x16, 0xff, 0x78, 0xbf, 0xb9, 0x3e, 0x44, 0x3f, 0xfb, 0x17, 0x0b, 0xbd,
  0x16, 0x8f, 0x3e, 0xbe, 0x3e, 0x1b, 0x0c, 0x3e, 0x46, 0xe3, 0x30, 0xbe,
  0xba, 0x2e, 0xde, 0xbe, 0xfe, 0x27, 0x7b, 0xbd, 0x79, 0x34, 0x59, 0xbf,
  0x67, 0x45, 0xcd, 0xbe, 0x82, 0x9e, 0x1f, 0x3f, 0x53, 0x44, 0x33, 0x3e,
  0xa6, 0xfb, 0xfc, 0x3e, 0xfb, 0x2b, 0x04, 0x3e, 0x9e, 0xc2, 0xda, 0x3e,
  0x7a, 0xb5, 0x13, 0x3d, 0xf4, 0x34, 0x9e, 0xbc, 0xcd, 0x9d, 0x21, 0x3d,
  0x08, 0xfc, 0xe0, 0x3d, 0xfa, 0x42, 0x96, 0x3e, 0x1e, 0x38, 0x49, 0xbf,
  0x76, 0x83, 0x1e, 0x3c, 0x16, 0xbb, 0x22, 0xbf, 0x5d, 0xfe, 0x12, 0xbe,
  0xe7, 0x0a, 0x44, 0xbf, 0xc0, 0xb9, 0x1c, 0xbf, 0x96, 0x5c, 0x65, 0x3f,
  0xbf, 0xc7, 0x27, 0xbf, 0x12, 0x53, 0x03, 0x3f, 0xac, 0xbf, 0xde, 0x3e,
  0x53, 0xf7, 0x86, 0x3e, 0x88, 0x24, 0x99, 0xbe, 0xfc, 0x5e, 0x20, 0x3f,
  0xa0, 0xd7, 0xf7, 0xbc, 0x34, 0xdb, 0x96, 0xbe, 0x45, 0x97, 0x4b, 0x3f,
  0x8e, 0x11, 0x3f, 0xbf, 0xc0, 0x89, 0x3a, 0x3f, 0xb0, 0x56, 0x85, 0x3f,
  0xec, 0xae, 0x09, 0x3e, 0xd9, 0x12, 0x5e, 0x3f, 0xc7, 0xb9, 0x19, 0x3e,
  0xd2, 0xe3, 0x3a, 0xbf, 0x45, 0x4f, 0x9b, 0x3e, 0x5b, 0xaf, 0x08, 0xbd,
  0xb6, 0x6a, 0xd5, 0xbe, 0x35, 0x63, 0xdd, 0xbd, 0x06, 0x8f, 0x0b, 0x3f,
  0x6e, 0x50, 0x18, 0xbf, 0xbd, 0x1b, 0x61, 0x3f, 0x8f, 0x25, 0x8f, 0xbd,
  0x44, 0x7d, 0x7e, 0xbe, 0xa1, 0xc7, 0x2a, 0x3d, 0x81, 0x8d, 0xb7, 0x3e,
  0x6b, 0x65, 0x36, 0x3f, 0xc4, 0x2c, 0x60, 0x3d, 0x25, 0x24, 0xb2, 0x3e,
  0x80, 0x07, 0x19, 0xbd, 0x7c, 0xe0, 0x96, 0xbf, 0x40, 0x6f, 0x12, 0xbe,
  0x6a, 0x70, 0xde, 0x3d, 0xad, 0x55, 0xab, 0xbd, 0xcf, 0x7f, 0xb7, 0xbd,
  0x71, 0xb1, 0x5f, 0x3e, 0x95, 0xe9, 0x18, 0xbf, 0x5f, 0xb1, 0x54, 0x3f,
  0x87, 0xd5, 0x82, 0x3e, 0x19, 0x11, 0x3b, 0x3d, 0x7c, 0x0b, 0x88, 0x3e,
  0xbc, 0x38, 0x3c, 0x3e, 0x02, 0x1f, 0x8f, 0x3f, 0x16, 0x3f, 0x97, 0x3e,
  0x49, 0xe7, 0x51, 0x3f, 0x95, 0x27, 0xa9, 0xbe, 0x12, 0x6c, 0x2b, 0xbf,
  0x01, 0xf5, 0x8c, 0xbe, 0x10, 0xa3, 0x0d, 0xbe, 0x45, 0xbb, 0xcc, 0xbe,
  0xda, 0xa4, 0x1b, 0x3e, 0x26, 0x1c, 0x06, 0x3f, 0x38, 0xfb, 0x99, 0xbf,
  0xa7, 0xae, 0x7f, 0x3f, 0x90, 0x45, 0xe8, 0xbc, 0xa4, 0x26, 0x84, 0xbe,
  0x06, 0x2f, 0x89, 0x3d, 0xbc, 0x85, 0xeb, 0x3e, 0x21, 0x51, 0x12, 0x3f,
  0xca, 0x0a, 0x5b, 0x3d, 0x94, 0xd4, 0xcd, 0x3e, 0x0a, 0xcb, 0x9f, 0xbe,
  0x0e, 0x85, 0x54, 0xbf, 0xd9, 0x39, 0x03, 0x3f, 0xdc, 0x35, 0x83, 0xbe,
  0xa9, 0x36, 0xd4, 0xbd, 0x76, 0xf4, 0x84, 0xbe, 0xbc, 0xa4, 0x0d, 0x3f,
  0x54, 0xe7, 0xfa, 0xbe, 0xe4, 0x5c, 0x8a, 0x3c, 0xea, 0xee, 0xfa, 0x3d,
  0x76, 0xf1, 0x29, 0xbe, 0x9f, 0x95, 0x19, 0x3e, 0x71, 0x80, 0xd6, 0xbe,
  0x83, 0xc8, 0xa1, 0xbe, 0xf4, 0x25, 0x54, 0xbe, 0xf3, 0x19, 0xc7, 0xbe,
  0x51, 0x59, 0xe8, 0xbe, 0xa5, 0x44, 0x07, 0x3f, 0x87, 0xc9, 0x1e, 0xbf,
  0x9d, 0x6c, 0x33, 0x3e, 0x37, 0x2d, 0xdd, 0xbe, 0x79, 0x11, 0x1b, 0x3f,
  0xf1, 0xa0, 0x3d, 0xbe, 0xa0, 0xaa, 0x12, 0x3f, 0xd4, 0x1d, 0x4e, 0xbf,
  0xd6, 0xa2, 0x8e, 0x3e, 0xbd, 0xef, 0x21, 0x3f, 0x79, 0xfc, 0x1c, 0xbf,
  0xb0, 0x1a, 0xde, 0xbe, 0xe4, 0xb5, 0x7e, 0xbf, 0x21, 0xf9, 0x41, 0x3d,
  0x91, 0xd6, 0x69, 0xbe, 0xff, 0x9f, 0xd7, 0xbe, 0xe9, 0x89, 0x42, 0x3f,
  0x8a, 0x85, 0x04, 0xbf, 0xb2, 0x7e, 0x07, 0x3f, 0x28, 0x16, 0xe1, 0x3d,
  0x79, 0x56, 0x08, 0x3f, 0x8d, 0x35, 0x7c, 0xbc, 0x95, 0x65, 0x66, 0x3f,
  0x72, 0xf6, 0x57, 0xbf, 0x2b, 0x83, 0xa1, 0xbe, 0x04, 0x39, 0xa3, 0x3e,
  0x94, 0xce, 0x49, 0xbf, 0x3c, 0x66, 0x14, 0xbf, 0x56, 0x04, 0xbb, 0xbe,
  0x11, 0x6c, 0x55, 0x3f, 0xfc, 0x07, 0x3a, 0xbf, 0x4c, 0x0f, 0xd4, 0xbc,
  0xbe, 0xb1, 0x67, 0x3f, 0x11, 0xcc, 0x14, 0xbf, 0x18, 0xf1, 0x34, 0x3e,
  0x5f, 0x6a, 0x4d, 0x3e, 0x5f, 0xf5, 0xe3, 0x3e, 0x57, 0xbb, 0xd7, 0xbd,
  0xcf, 0x22, 0x45, 0x3f, 0x17, 0x44, 0xf1, 0xbe, 0xd1, 0x00, 0x3d, 0x3f,
  0x3b, 0x88, 0xf7, 0x3e, 0xf6, 0xbb, 0x55, 0xbd, 0x02, 0xde, 0x4f, 0xbf,
  0xc0, 0x10, 0x4d, 0xbb, 0xc6, 0xd1, 0x0d, 0x3f, 0x26, 0x3c, 0xf7, 0xbd,
  0xa3, 0x72, 0xbc, 0x3e, 0xaa, 0x52, 0x1b, 0x3f, 0x78, 0xa3, 0x9f, 0xbe,
  0x7d, 0xc6, 0x88, 0x3e, 0x6a, 0xf8, 0x21, 0xbe, 0xbd, 0xe5, 0x0d, 0x3f,
  0x67, 0x0b, 0x00, 0xbf, 0xb7, 0xe0, 0x59, 0xbc, 0x8d, 0xdc, 0xa1, 0xbf,
  0x7d, 0xf7, 0xfc, 0x3e, 0x3d, 0x5a, 0x5a, 0x3e, 0x5d, 0x97, 0xe9, 0x3d,
  0x80, 0xfc, 0x0c, 0x3f, 0x49, 0x49, 0xc3, 0x3e, 0x44, 0xde, 0x0c, 0x3c,
  0x3b, 0x2e, 0xd5, 0x3e, 0x28, 0x91, 0x4f, 0x3e, 0x15, 0x6f, 0x4c, 0xbf,
  0x3a, 0x9d, 0xe0, 0x3e, 0x98, 0x47, 0xde, 0x3d, 0x1b, 0xa8, 0xda, 0xbe,
  0x7b, 0x3f, 0xa0, 0x3e, 0xa3, 0xcc, 0x8c, 0x3e, 0x4f, 0x9f, 0x04, 0xbe,
  0x47, 0x4b, 0xb6, 0x3e, 0x7f, 0x64, 0x09, 0xbe, 0x51, 0xac, 0x1f, 0xbe,
  0x32, 0x5d, 0x92, 0x3e, 0x14, 0x21, 0xd5, 0x3e, 0x64, 0xca, 0x51, 0x3f,
  0x2a, 0xd9, 0x80, 0x3e, 0x8a, 0x2e, 0xf9, 0x3e, 0xfb, 0x70, 0xa4, 0xbe,
  0x43, 0xa7, 0x72, 0xbf, 0x11, 0xd1, 0x10, 0x3e, 0x97, 0x55, 0x68, 0xbe,
  0x3c, 0x22, 0x97, 0xbe, 0x6b, 0xdf, 0x92, 0xbe, 0x6c, 0x3e, 0x54, 0x3e,
  0xad, 0xba, 0x20, 0xbf, 0xc3, 0x6f, 0x50, 0x3f, 0x62, 0xdc, 0x32, 0x3e,
  0xf8, 0x37, 0x43, 0x3e, 0x23, 0xcd, 0x91, 0xbc, 0x12, 0x25, 0xf8, 0xbe,
  0xd8, 0x32, 0x14, 0xbf, 0x4b, 0xdb, 0xe5, 0x3e, 0x9d, 0x2e, 0x03, 0xbe,
  0x14, 0x08, 0x01, 0xbd, 0xd6, 0x5c, 0x43, 0x3f, 0xab, 0xc0, 0x10, 0xbf,
  0xed, 0x7b, 0xd4, 0x3e, 0xe7, 0x2e, 0x2d, 0xbd, 0xf5, 0x77, 0xb9, 0x3e,
  0x8f, 0xcd, 0x6d, 0xbe, 0x70, 0xb8, 0x22, 0x3f, 0x49, 0x2d, 0x7f, 0xbf,
  0x3f, 0x78, 0xae, 0xbd, 0xd4, 0x5a, 0x11, 0x3f, 0x6a, 0xa4, 0x1c, 0xbf,
  0x24, 0xa7, 0x00, 0x3f, 0x0d, 0x99, 0x5b, 0x3f, 0xc9, 0x2a, 0xbf, 0xbd,
  0x0e, 0x49, 0x96, 0x3e, 0x6d, 0x67, 0x14, 0x3e, 0x11, 0x3b, 0x77, 0xbf,
  0xee, 0xb1, 0x8b, 0x3e, 0xe0, 0xda, 0x0a, 0x3e, 0xb7, 0x70, 0xcc, 0xbd,
  0xa9, 0x25, 0x0c, 0xbe, 0x40, 0xbd, 0x25, 0x3e, 0xc0, 0xb6, 0xda, 0xbd,
  0xca, 0xd8, 0x22, 0x3f, 0xf2, 0xce, 0xdb, 0x3e, 0x2d, 0xd9, 0xd1, 0xbd,
  0xe6, 0xd4, 0x70, 0x3e, 0x3e, 0xe8, 0xff, 0xff, 0x04, 0x00, 0x00, 0x00,
  0x40, 0x01, 0x00, 0x00, 0xdd, 0x0b, 0x23, 0x3c, 0x3a, 0xff, 0xc7, 0xbc,
  0xc2, 0x54, 0x40, 0xbd, 0xaf, 0xbc, 0xfc, 0xbe, 0x98, 0x3f, 0x33, 0x3f,
  0x27, 0xa2, 0xa5, 0xbc, 0xb5, 0xb9, 0xad, 0x3d, 0xfe, 0xd9, 0x8f, 0x3e,
  0x64, 0x1e, 0xce, 0x3e, 0xa7, 0xba, 0x3d, 0x3e, 0x1f, 0x63, 0x9c, 0xbe,
  0x15, 0x80, 0xd8, 0x3b, 0x8a, 0xb0, 0x00, 0x3e, 0x92, 0x84, 0x24, 0x3d,
  0x6b, 0xbb, 0x1e, 0x3e, 0x48, 0xdb, 0x9c, 0xbc, 0xaf, 0x08, 0xd3, 0x3d,
  0xcf, 0x0f, 0x83, 0x3e, 0xb5, 0xe2, 0x0f, 0xbf, 0x67, 0x20, 0xa1, 0xbe,
  0xaa, 0x61, 0xa5, 0x3d, 0x42, 0x19, 0x85, 0x3e, 0x27, 0x0e, 0x91, 0x3e,
  0xbd, 0xb0, 0xf0, 0xbe, 0x79, 0x34, 0x3d, 0xbd, 0x5f, 0x28, 0x2d, 0x3d,
  0x9a, 0x8d, 0x72, 0xbe, 0x30, 0x4a, 0x35, 0x3e, 0xb6, 0xc6, 0x27, 0xbe,
  0xdf, 0xa4, 0x80, 0xbe, 0xb5, 0xe9, 0xdb, 0x3d, 0xc0, 0x24, 0x8a, 0x3e,
  0xcc, 0xc5, 0x4a, 0x3e, 0xcd, 0x3d, 0x72, 0xbc, 0xef, 0x45, 0xdc, 0x3e,
  0x7f, 0xce, 0x51, 0x3e, 0xd5, 0x9a, 0x92, 0xbe, 0x9f, 0x84, 0x26, 0xbe,
  0x50, 0x46, 0xe6, 0x3e, 0x97, 0x05, 0x62, 0x3c, 0x1b, 0xdb, 0x50, 0xbd,
  0xb4, 0x2d, 0x97, 0x3d, 0x6c, 0x04, 0xc6, 0x3e, 0x4c, 0x67, 0x90, 0xbe,
  0x7d, 0xb8, 0xf8, 0x3d, 0xc2, 0xcd, 0x22, 0x3e, 0xf8, 0x55, 0x50, 0x3e,
  0x81, 0xb9, 0xad, 0xbe, 0x45, 0xa0, 0x49, 0xbd, 0x4f, 0x9d, 0x6f, 0x3d,
  0xe0, 0xd4, 0x45, 0x3e, 0xa0, 0xd5, 0x09, 0x3e, 0xa3, 0x12, 0x14, 0x3f,
  0x54, 0x9b, 0x16, 0xbe, 0x60, 0x53, 0x21, 0x3f, 0x21, 0x15, 0x34, 0x3c,
  0x10, 0x6f, 0xc1, 0xbc, 0xc3, 0x97, 0xdd, 0xbe, 0x81, 0x6c, 0x4c, 0xbd,
  0xfb, 0xbd, 0xe0, 0x3e, 0xaf, 0xea, 0x68, 0xbe, 0x82, 0x94, 0x38, 0x3e,
  0xe0, 0xee, 0x94, 0x3d, 0x3d, 0xc7, 0x19, 0x3e, 0x2e, 0x2c, 0x36, 0xbd,
  0x58, 0x41, 0x4e, 0x3c, 0x5e, 0x86, 0x3c, 0xbe, 0xec, 0xce, 0x59, 0x3d,
  0x82, 0x67, 0x58, 0xbe, 0xa8, 0x29, 0x38, 0xbe, 0x76, 0x91, 0x9e, 0x3e,
  0x98, 0x6f, 0x25, 0x3e, 0x76, 0x7d, 0x60, 0xbd, 0x39, 0x01, 0xd7, 0x3d,
  0x9e, 0xe6, 0x91, 0x3e, 0xd8, 0x05, 0x04, 0xbd, 0x65, 0x50, 0xed, 0x3c,
  0x21, 0x74, 0x95, 0xbe, 0xb7, 0x11, 0xc2, 0xbe, 0xfd, 0x56, 0x55, 0x3e,
  0x8a, 0xe9, 0xff, 0xff, 0x04, 0x00, 0x00, 0x00, 0x40, 0x01, 0x00, 0x00,
  0x01, 0xa3, 0x0f, 0x3e, 0xc7, 0x1b, 0x00, 0x3d, 0x72, 0xca, 0x95, 0x3e,
  0xf1, 0x05, 0xa0, 0x3e, 0xd3, 0x94, 0xaf, 0x3d, 0x8b, 0x31, 0x9a, 0x3e,
  0x32, 0x4d, 0x6a, 0x3e, 0x90, 0xf5, 0x19, 0xbd, 0x01, 0xbe, 0x76, 0xbc,
  0x73, 0x0c, 0x39, 0xbe, 0xb3, 0x12, 0x9a, 0xbd, 0x47, 0x48, 0x3d, 0xbe,
  0x3f, 0x93, 0xdb, 0x3c, 0xf2, 0x44, 0xae, 0xbe, 0xc1, 0xd7, 0x5d, 0x3d,
  0x31, 0x03, 0x04, 0x3e, 0x83, 0x9f, 0x98, 0x3e, 0x89, 0xa5, 0xb3, 0xbd,
  0x6b, 0x89, 0x35, 0xbe, 0x3b, 0xcc, 0x9e, 0xbc, 0x2e, 0xe6, 0x0d, 0xbe,
  0xf1, 0xe4, 0x90, 0xbe, 0x2c, 0xea, 0x89, 0xbd, 0x8f, 0x82, 0x2e, 0x3e,
  0x84, 0xe9, 0x81, 0xbe, 0x31, 0xad, 0x2c, 0xbe, 0xe6, 0xfc, 0x6f, 0x3d,
  0xf9, 0xf3, 0x8b, 0x3c, 0xec, 0xe9, 0xf1, 0x3b, 0x8a, 0x6f, 0x20, 0x3e,
  0xfd, 0x38, 0x37, 0x3e, 0xb4, 0x6e, 0x0c, 0xbc, 0xfc, 0xae, 0x95, 0x3c,
  0xba, 0x88, 0x29, 0xbe, 0x4d, 0xa6, 0x2f, 0xbe, 0x3e, 0xb6, 0xed, 0xbd,
  0x2c, 0x6c, 0x40, 0xbe, 0xbf, 0x12, 0x8b, 0xbd, 0xb7, 0x4a, 0x36, 0x3e,
  0x68, 0xbc, 0x02, 0xbe, 0xfa, 0x51, 0xec, 0xbd, 0xb1, 0xc3, 0xb9, 0xbd,
  0x4f, 0xf2, 0x95, 0xbe, 0xb9, 0xce, 0xf4, 0x3d, 0x1a, 0x6c, 0xcc, 0x3d,
  0x12, 0x4f, 0x4f, 0xbb, 0x22, 0x0b, 0xef, 0xbd, 0xe9, 0xbd, 0xec, 0xbb,
  0x26, 0xe4, 0x10, 0xbe, 0x83, 0x93, 0xe1, 0xbe, 0xa2, 0xac, 0x25, 0x3e,
  0x19, 0x5c, 0x8a, 0x3e, 0xcb, 0xbf, 0xdc, 0xbd, 0xa4, 0xf3, 0x46, 0xbe,
  0x86, 0xe2, 0x21, 0x3e, 0xa0, 0x05, 0x1f, 0x3c, 0x6e, 0x4e, 0x0f, 0x3c,
  0x7f, 0xfa, 0x1f, 0x3e, 0x6e, 0x14, 0xd5, 0xbd, 0x03, 0xe9, 0xb6, 0xbe,
  0x48, 0x29, 0x93, 0xbd, 0xe0, 0x84, 0x88, 0xbe, 0x37, 0xb1, 0x70, 0xbe,
  0xad, 0x3b, 0x87, 0xbc, 0xe3, 0xfc, 0x6f, 0x3e, 0x55, 0x39, 0x1c, 0xbe,
  0xfb, 0x7c, 0x35, 0x3e, 0xed, 0x33, 0xfd, 0x3d, 0x2f, 0xf7, 0x28, 0x3e,
  0xf1, 0x92, 0x8a, 0x3d, 0x9f, 0x0f, 0x2d, 0x3e, 0xb6, 0x61, 0x2d, 0xbe,
  0xe3, 0xa2, 0x90, 0xbe, 0xb9, 0x6a, 0xa2, 0x3e, 0x84, 0x16, 0xc1, 0xbd,
  0xbd, 0x9c, 0xfe, 0xbd, 0xab, 0x19, 0xc0, 0x3d, 0x1f, 0x0c, 0x6e, 0x3e,
  0xc5, 0xa6, 0x4d, 0x3e, 0xfd, 0xba, 0xa3, 0xbd, 0xd6, 0xea, 0xff, 0xff,
  0x04, 0x00, 0x00, 0x00, 0x40, 0x01, 0x00, 0x00, 0x12, 0x7f, 0x5c, 0xbd,
  0x16, 0xa2, 0xa3, 0xbe, 0x74, 0x39, 0x5e, 0x3e, 0xfd, 0x08, 0x48, 0x3e,
  0xcd, 0x1e, 0x51, 0xbe, 0x9b, 0x0a, 0xc7, 0x3d, 0xe8, 0x48, 0xe8, 0x3d,
  0x12, 0x8e, 0xcb, 0xbe, 0x15, 0x7f, 0xd8, 0xbc, 0x3e, 0x3d, 0x53, 0xbe,
  0xc2, 0x30, 0x54, 0xbe, 0xc1, 0x63, 0x1d, 0xbe, 0x76, 0x46, 0x44, 0x3e,
  0x23, 0x37, 0xc6, 0xbc, 0x5d, 0xc7, 0xe2, 0xbd, 0x32, 0xdc, 0x68, 0xbe,
  0xa3, 0xe7, 0x6d, 0x3e, 0x86, 0x2c, 0xd9, 0xbe, 0xeb, 0x67, 0x27, 0xbd,
  0x51, 0x9c, 0x6b, 0xbe, 0x9c, 0xd3, 0x81, 0xbe, 0xd8, 0x5b, 0x0e, 0xbd,
  0x3f, 0xab, 0x5d, 0x3e, 0x9a, 0x7d, 0x9e, 0x3e, 0x81, 0x20, 0x20, 0xbe,
  0xb6, 0x96, 0x33, 0x3c, 0xff, 0xe4, 0x1f, 0xbc, 0xd0, 0x56, 0xe9, 0xbd,
  0xe0, 0x02, 0xbb, 0x3c, 0x52, 0x7a, 0x18, 0xbf, 0xa6, 0x25, 0x68, 0x3e,
  0x87, 0xcf, 0x31, 0xbe, 0xf4, 0x3c, 0x30, 0x3d, 0xa5, 0xdb, 0x9a, 0xbd,
  0xc7, 0xb9, 0xe1, 0xbd, 0x86, 0x25, 0xb4, 0xbd, 0x87, 0xde, 0xa5, 0xbe,
  0x65, 0xea, 0x43, 0x3e, 0x4c, 0x2b, 0x6c, 0xbc, 0x55, 0x49, 0x20, 0x3e,
  0x0f, 0x6c, 0x93, 0x3e, 0x67, 0x22, 0x15, 0xbe, 0x14, 0x2d, 0x4e, 0x3c,
  0xd5, 0x05, 0xa8, 0xbc, 0xef, 0x1d, 0x49, 0xbe, 0x4a, 0x5d, 0xab, 0x3e,
  0xd1, 0x06, 0x0c, 0xbc, 0x63, 0xa4, 0x6a, 0x3e, 0x93, 0x54, 0x26, 0xbd,
  0x53, 0xc2, 0x2b, 0xbc, 0x16, 0x33, 0x73, 0x3e, 0x31, 0x89, 0x3a, 0xbd,
  0xdb, 0x0a, 0xb0, 0xbe, 0x9f, 0x2f, 0xa7, 0x3d, 0xd1, 0x47, 0xb6, 0xbe,
  0x4c, 0xcf, 0xc8, 0xbd, 0x74, 0x55, 0x10, 0x3b, 0x95, 0xfb, 0x90, 0xbe,
  0x6e, 0xe2, 0x51, 0xbe, 0xad, 0x23, 0xbe, 0xbd, 0x35, 0x10, 0x21, 0x3c,
  0xc2, 0x8e, 0x49, 0xbc, 0x5a, 0xb3, 0x8d, 0xbe, 0x08, 0xa9, 0x76, 0xbe,
  0xe7, 0x58, 0x3a, 0xbe, 0xb3, 0xb0, 0xec, 0x3d, 0x6c, 0x0a, 0xa7, 0xbd,
  0x15, 0x75, 0x94, 0x3e, 0x34, 0xb7, 0x58, 0xbe, 0xbc, 0x7a, 0xa4, 0x3d,
  0xb7, 0xb2, 0x86, 0x3e, 0xcf, 0x92, 0x7a, 0x3e, 0x5b, 0x2d, 0x8e, 0xbd,
  0x28, 0xbb, 0x0c, 0xbe, 0x59, 0x3a, 0xfa, 0x3d, 0xc9, 0xea, 0xa2, 0xbe,
  0x72, 0xcb, 0xc7, 0xbd, 0xc1, 0x7a, 0x45, 0xbe, 0x40, 0xb5, 0xe7, 0x3d,
  0x11, 0xb5, 0xee, 0xbe, 0x22, 0xec, 0xff, 0xff, 0x04, 0x00, 0x00, 0x00,
  0x40, 0x01, 0x00, 0x00, 0x86, 0x0c, 0x59, 0x3e, 0x4b, 0x96, 0x58, 0xbe,
  0x31, 0x53, 0x11, 0x3e, 0x6e, 0x62, 0xb9, 0xbe, 0xc2, 0x94, 0x8a, 0x3e,
  0xc6, 0xaa, 0x61, 0x3e, 0xd3, 0x48, 0x51, 0x3e, 0x73, 0xa4, 0x0d, 0x3e,
  0x3e, 0xc2, 0xb2, 0xbe, 0xfd, 0x13, 0x2e, 0x3e, 0xf5, 0x78, 0x3b, 0xbe,
  0x39, 0x89, 0x04, 0x3d, 0x88, 0xab, 0x8a, 0xbe, 0x62, 0x74, 0xbc, 0xbe,
  0xe0, 0x99, 0x5b, 0xbd, 0x32, 0x55, 0x5d, 0x3d, 0x05, 0x69, 0x3e, 0x3e,
  0x7f, 0x2f, 0xcf, 0x3e, 0x12, 0xfb, 0x5c, 0x3e, 0x08, 0x91, 0xa7, 0xbd,
  0x10, 0x3f, 0x4c, 0xbd, 0xd3, 0x7c, 0xa0, 0xbe, 0xb9, 0x09, 0xa6, 0x3d,
  0x69, 0xb5, 0x34, 0x3e, 0x88, 0x49, 0x2c, 0x3d, 0x84, 0xb1, 0xb3, 0x3c,
  0x53, 0xaf, 0x86, 0xbd, 0xbb, 0x5f, 0x91, 0xbe, 0xa3, 0x73, 0xb5, 0xbe,
  0x12, 0x1d, 0x70, 0xbe, 0x27, 0xeb, 0x3c, 0xbe, 0x85, 0x15, 0x4a, 0x3e,
  0xe8, 0xcd, 0x4d, 0x3d, 0x28, 0x61, 0x2e, 0x3e, 0x32, 0xa5, 0xd6, 0xbd,
  0xd7, 0x72, 0xc2, 0xbd, 0x42, 0x63, 0x93, 0xbe, 0xdc, 0x09, 0x89, 0x3e,
  0x87, 0x47, 0xb8, 0x3d, 0x64, 0xd0, 0x52, 0xbe, 0xe3, 0x2a, 0x80, 0xbe,
  0x2e, 0xae, 0x4f, 0xbe, 0x34, 0xe7, 0x45, 0x3e, 0xad, 0x60, 0xa9, 0xbe,
  0x2e, 0x09, 0x76, 0x3d, 0x93, 0x75, 0x85, 0x3e, 0xe5, 0xd3, 0x43, 0x3d,
  0xb4, 0x1b, 0xc6, 0x3d, 0x53, 0xc3, 0x36, 0x3e, 0xbe, 0x53, 0x17, 0xbe,
  0xcd, 0x90, 0xa1, 0x3e, 0x3d, 0x37, 0xab, 0x3d, 0xa9, 0xe3, 0xa8, 0x3d,
  0x39, 0x5d, 0x07, 0x3e, 0x4a, 0x92, 0x89, 0x3d, 0xf6, 0x7b, 0x85, 0xbe,
  0x31, 0x48, 0x8b, 0x3e, 0x79, 0x86, 0x18, 0xbe, 0xc8, 0x76, 0xe7, 0xbd,
  0x16, 0x4a, 0x8f, 0xbe, 0x5d, 0xa6, 0x0e, 0xbe, 0xa4, 0x2a, 0xd5, 0x3d,
  0xc9, 0xee, 0x92, 0x3e, 0x47, 0xb9, 0xa7, 0xbc, 0x17, 0xff, 0x83, 0xbd,
  0x45, 0x4b, 0xa3, 0x3d, 0x61, 0xbd, 0x8a, 0xbe, 0xf8, 0x92, 0x3f, 0x3e,
  0x23, 0x81, 0xf4, 0x3d, 0x99, 0x6c, 0xe3, 0x3c, 0x5b, 0x7b, 0x3d, 0xbe,
  0x77, 0x63, 0x9b, 0x3e, 0xf5, 0x59, 0xb4, 0xbd, 0x76, 0x8a, 0xdf, 0xbd,
  0x28, 0xff, 0x53, 0xbe, 0x05, 0x8c, 0x8f, 0x3e, 0xc9, 0xb2, 0x57, 0x3e,
  0x19, 0x2b, 0xf4, 0xbd, 0x12, 0x1d, 0xf7, 0xbc, 0x6a, 0x87, 0xb2, 0x3d,
  0x6e, 0xed, 0xff, 0xff, 0x04, 0x00, 0x00, 0x00, 0x40, 0x00, 0x00, 0x00,
  0xae, 0x02, 0xb9, 0xbe, 0xc3, 0x13, 0xce, 0x3d, 0xcd, 0xc0, 0x8c, 0xbd,
  0x24, 0xc7, 0x42, 0xbe, 0xf1, 0x22, 0x89, 0x3c, 0xb7, 0x25, 0x13, 0x3d,
  0xc9, 0x30, 0x51, 0x3d, 0x67, 0x29, 0x9d, 0xbb, 0x2e, 0x30, 0x21, 0x3e,
  0x3b, 0x6b, 0x6a, 0x3e, 0x6f, 0x3b, 0x02, 0xbd, 0xb7, 0x38, 0x0e, 0xbe,
  0x7e, 0xe2, 0x78, 0x3d, 0xa2, 0xdf, 0x6a, 0x3d, 0x66, 0xcf, 0x08, 0x3d,
  0x1e, 0x8f, 0xa9, 0x3d, 0xba, 0xed, 0xff, 0xff, 0x04, 0x00, 0x00, 0x00,
  0x40, 0x00, 0x00, 0x00, 0xa9, 0x21, 0x8b, 0x3f, 0xf8, 0x38, 0x8c, 0x3f,
  0x1f, 0xe7, 0x73, 0x3f, 0xed, 0xf8, 0x89, 0x3f, 0xa6, 0x6f, 0x72, 0x3f,
  0x5b, 0xa4, 0x8e, 0x3f, 0xd7, 0x8f, 0x8a, 0x3f, 0x6d, 0x5c, 0x67, 0x3f,
  0x1c, 0xa0, 0xa4, 0x3f, 0x40, 0x17, 0xa9, 0x3f, 0xec, 0xc9, 0x87, 0x3f,
  0xc5, 0xb7, 0x98, 0x3f, 0xed, 0x23, 0x89, 0x3f, 0xa7, 0xe7, 0x75, 0x3f,
  0x14, 0xa2, 0x87, 0x3f, 0x2e, 0x78, 0x8c, 0x3f, 0x06, 0xee, 0xff, 0xff,
  0x04, 0x00, 0x00, 0x00, 0x40, 0x00, 0x00, 0x00, 0xcf, 0x7d, 0x05, 0xbe,
  0x10, 0x7d, 0xcc, 0xbd, 0x04, 0xbd, 0xfc, 0x3c, 0xf5, 0xcb, 0xf2, 0xbd,
  0x95, 0x8b, 0xb2, 0xba, 0xab, 0x50, 0x35, 0x3d, 0x65, 0xd7, 0xb6, 0xbb,
  0x55, 0x02, 0x0a, 0x3d, 0x98, 0x95, 0xa2, 0x3d, 0x9e, 0xff, 0x95, 0x3d,
  0x33, 0x6d, 0x89, 0x3b, 0xdb, 0x8a, 0x9e, 0x3a, 0x17, 0x86, 0x7b, 0x3d,
  0x16, 0x7e, 0x97, 0xbb, 0x13, 0xcf, 0x17, 0x3d, 0x1f, 0x92, 0x48, 0xbd,
  0x52, 0xee, 0xff, 0xff, 0x04, 0x00, 0x00, 0x00, 0x40, 0x00, 0x00, 0x00,
  0x4d, 0x1c, 0x33, 0x3e, 0x9a, 0xf5, 0x63, 0x3e, 0x9e, 0x02, 0x55, 0x3d,
  0x8d, 0x6a, 0xa6, 0x3e, 0xd8, 0x94, 0x11, 0x3e, 0x5f, 0x06, 0x76, 0x3e,
  0xda, 0xab, 0x0c, 0xbd, 0xb9, 0xee, 0x7e, 0x3d, 0x33, 0xab, 0x44, 0x3d,
  0x8a, 0x32, 0xb2, 0x3d, 0x39, 0x85, 0x00, 0x3e, 0xef, 0xfa, 0x23, 0x3e,
  0xaa, 0x2c, 0xeb, 0x3d, 0x4d, 0x7f, 0x93, 0x3d, 0x22, 0x52, 0x95, 0x3e,
  0x33, 0xdb, 0x25, 0x3e, 0x9e, 0xee, 0xff, 0xff, 0x04, 0x00, 0x00, 0x00,
  0x00, 0x04, 0x00, 0x00, 0x6c, 0xab, 0x3e, 0x3e, 0x30, 0xbe, 0x00, 0xbe,
  0x41, 0x69, 0x04, 0xbf, 0x6f, 0x6e, 0xa4, 0x3c, 0xb7, 0x80, 0x85, 0xbe,
  0xea, 0xde, 0xdf, 0x3d, 0x0c, 0x20, 0x22, 0xbd, 0xfb, 0x07, 0xaf, 0xbd,
  0x56, 0x9d, 0x1b, 0x3f, 0xd1, 0x3d, 0x9e, 0xbe, 0x94, 0x0c, 0xa4, 0xbe,
  0x22, 0xae, 0x18, 0x3e, 0x40, 0xc3, 0xaa, 0xbd, 0x86, 0x75, 0x26, 0xbf,
  0xa6, 0x1f, 0xd4, 0xbd, 0x17, 0x91, 0xe5, 0x3e, 0x53, 0x57, 0x6b, 0x3e,
  0x83, 0x8d, 0xa3, 0x3e, 0x3f, 0x3b, 0x1c, 0xbe, 0xcf, 0xb9, 0x08, 0x3d,
  0x34, 0xf5, 0x76, 0x3e, 0xff, 0xa9, 0xb2, 0xbe, 0x86, 0x14, 0x66, 0xbb,
  0x21, 0xb5, 0x6a, 0x3e, 0xb6, 0xb4, 0x11, 0x3e, 0x73, 0x5a, 0xfa, 0x3c,
  0xf6, 0x8c, 0x8c, 0x3c, 0x4b, 0x48, 0xc2, 0xbc, 0x34, 0xb4, 0x71, 0xbc,
  0xd3, 0x14, 0xb5, 0x3e, 0x07, 0xed, 0xb4, 0xbd, 0x4e, 0xa3, 0xf2, 0x3e,
  0x03, 0x48, 0x64, 0x3d, 0xeb, 0x45, 0xbb, 0x3d, 0x64, 0x30, 0x31, 0xbe,
  0xac, 0x89, 0xdd, 0xbd, 0x37, 0x61, 0xfc, 0x3c, 0xff, 0x47, 0xf4, 0x3d,
  0xf8, 0xfc, 0xc0, 0xbd, 0xa6, 0x05, 0x37, 0xbe, 0x3d, 0x08, 0xfe, 0xba,
  0x0b, 0x5f, 0x23, 0x3d, 0x63, 0x16, 0x8f, 0xbd, 0xc7, 0xdf, 0xd6, 0xbc,
  0x65, 0x07, 0x4a, 0xbc, 0x0d, 0x0c, 0x90, 0xbd, 0xa0, 0x0a, 0x84, 0xbe,
  0x6c, 0x40, 0xce, 0x3b, 0xd0, 0x34, 0xd9, 0xbe, 0xaa, 0xac, 0x85, 0x3d,
  0x51, 0x5b, 0x16, 0xbf, 0x07, 0x23, 0xd1, 0x3e, 0x89, 0x50, 0x29, 0xbc,
  0x6e, 0xb0, 0x6f, 0x3e, 0x8c, 0x94, 0xed, 0xbd, 0x9d, 0x3f, 0xdf, 0xbd,
  0xf7, 0x74, 0x96, 0x3e, 0xf9, 0xe0, 0x9b, 0x3b, 0x19, 0x1c, 0xbd, 0x3b,
  0xe1, 0xcd, 0xfd, 0xbd, 0x86, 0x2f, 0xa5, 0xbe, 0xce, 0x0e, 0x27, 0xbe,
  0x9f, 0x90, 0x4c, 0x3d, 0x02, 0x38, 0x2e, 0xbe, 0xe5, 0xbb, 0x37, 0xbe,
  0x34, 0xc8, 0x4b, 0xbe, 0x1b, 0xba, 0x63, 0x3e, 0xab, 0x05, 0xbc, 0xbe,
  0x53, 0x78, 0xa6, 0xbe, 0x9b, 0xae, 0x62, 0xbe, 0xcb, 0x2b, 0xa1, 0x3e,
  0xbc, 0xe4, 0x37, 0xbd, 0x2a, 0x12, 0xf0, 0xbe, 0x33, 0x10, 0xe6, 0x3d,
  0x82, 0x4a, 0x9c, 0xbe, 0x3e, 0x69, 0x1b, 0x3e, 0x91, 0x14, 0x03, 0xbe,
  0x92, 0x3c, 0xe5, 0x3d, 0xd5, 0x29, 0xca, 0xbd, 0x35, 0x0a, 0x55, 0x3d,
  0xf9, 0x37, 0x6e, 0x3c, 0x31, 0x91, 0xb1, 0x3b, 0x63, 0x25, 0x8d, 0x3d,
  0xfb, 0x15, 0x8f, 0xbd, 0x30, 0xa4, 0x37, 0xbe, 0x76, 0x45, 0x83, 0xbe,
  0x18, 0xdc, 0xa6, 0xbd, 0xcb, 0x4e, 0x2e, 0xbe, 0x39, 0x5c, 0x8e, 0xbc,
  0x01, 0xd0, 0xd9, 0x3d, 0x4b, 0xe4, 0x4f, 0x3e, 0xda, 0x33, 0xa0, 0xbe,
  0x81, 0x31, 0xca, 0xbd, 0x1b, 0x59, 0x59, 0xbd, 0x32, 0xcd, 0xde, 0xbd,
  0x1c, 0x14, 0xb1, 0x3d, 0xcd, 0xd5, 0x6d, 0xbd, 0xb5, 0x85, 0xd2, 0xbd,
  0x7c, 0xa1, 0x29, 0x3e, 0x9d, 0xd6, 0x28, 0x3e, 0xab, 0x88, 0xe6, 0x3c,
  0x12, 0x7b, 0x41, 0xbd, 0xab, 0x69, 0x93, 0xbe, 0xcf, 0x74, 0x6d, 0x3d,
  0x4e, 0xdc, 0x00, 0xbe, 0x4d, 0x94, 0x89, 0x3e, 0x92, 0xeb, 0x66, 0x3d,
  0xed, 0xdd, 0xcc, 0xbd, 0x64, 0x3a, 0xb0, 0x3d, 0xe6, 0x98, 0x08, 0xbe,
  0x06, 0x37, 0x8a, 0x3d, 0x83, 0x5e, 0xab, 0xbd, 0x8e, 0xf2, 0x98, 0xbe,
  0xca, 0xbf, 0x69, 0xbe, 0xb1, 0xd2, 0x96, 0xb9, 0x62, 0xf7, 0x82, 0x3e,
  0x6d, 0x79, 0x03, 0x3e, 0x14, 0x94, 0x70, 0xbe, 0x61, 0xc6, 0x81, 0xbe,
  0x89, 0x57, 0xf8, 0xbd, 0xed, 0xcd, 0x0e, 0x3d, 0x53, 0x2c, 0x89, 0xbd,
  0xed, 0x1a, 0x71, 0xbd, 0x68, 0x78, 0x4e, 0x3b, 0x7b, 0xd3, 0xb7, 0xbd,
  0xe8, 0x67, 0x61, 0xbd, 0x7f, 0x66, 0xa1, 0x3e, 0x03, 0xa9, 0x85, 0xbe,
  0xd6, 0x86, 0xe6, 0x3e, 0x7e, 0xeb, 0x72, 0xbe, 0x8c, 0x8c, 0x8d, 0xbd,
  0xe5, 0xa8, 0x21, 0x3e, 0x07, 0xec, 0xa1, 0x3e, 0x02, 0xa9, 0x27, 0xbd,
  0xf6, 0xe2, 0x15, 0x3e, 0xd9, 0x2e, 0x32, 0x3e, 0xbd, 0xb0, 0x69, 0xbe,
  0x9b, 0x19, 0x06, 0xbe, 0x59, 0xe7, 0x14, 0xbe, 0xf0, 0x15, 0x62, 0x3d,
  0xdf, 0x20, 0x93, 0x3d, 0x12, 0xbc, 0x83, 0x3d, 0x92, 0xf0, 0x8e, 0x3e,
  0xdc, 0x4e, 0xec, 0x3d, 0xb5, 0x0d, 0x84, 0x3e, 0x3e, 0x0a, 0xd7, 0x3d,
  0xf6, 0x1c, 0xe9, 0x3e, 0x75, 0x09, 0xb8, 0x3e, 0x7a, 0xc3, 0x48, 0xbe,
  0x44, 0xc4, 0x93, 0xbe, 0x23, 0x2a, 0x24, 0xbd, 0xe9, 0xbd, 0x95, 0x3e,
  0xee, 0xa6, 0x3f, 0x3d, 0x22, 0xd8, 0x9b, 0x3e, 0x8d, 0x8f, 0x20, 0xbe,
  0x16, 0x0b, 0x1d, 0xbd, 0x39, 0xf3, 0x6a, 0x3e, 0xf0, 0x1b, 0x94, 0x3e,
  0x7b, 0xec, 0xaa, 0xbd, 0x71, 0xc7, 0xe0, 0x3c, 0xff, 0xfe, 0x48, 0x3e,
  0x39, 0xa2, 0x8e, 0x3e, 0xdd, 0x9d, 0xc6, 0x3d, 0xa9, 0x5f, 0xb7, 0xbd,
  0x19, 0xb7, 0x97, 0x3d, 0xba, 0xb6, 0x81, 0xbe, 0x23, 0x65, 0x52, 0x3e,
  0x81, 0x53, 0xae, 0xbd, 0xbc, 0xa2, 0x94, 0xbe, 0x01, 0x93, 0x42, 0x3d,
  0x34, 0x53, 0x42, 0xbe, 0xce, 0xe9, 0x8d, 0xbe, 0x51, 0x66, 0xd3, 0x3d,
  0x5f, 0x65, 0x2d, 0xbe, 0xa4, 0x17, 0xa8, 0xbe, 0x19, 0x6b, 0x65, 0x3e,
  0xff, 0x03, 0x93, 0x3c, 0x22, 0x9e, 0x6e, 0x3d, 0x53, 0x96, 0xc8, 0xbe,
  0xd3, 0xf8, 0x2c, 0x3e, 0xb6, 0xfa, 0x3f, 0x3e, 0xc7, 0x24, 0x0e, 0x3e,
  0xfd, 0x5b, 0x00, 0x3e, 0x6b, 0x66, 0x01, 0x3d, 0x3d, 0xcc, 0x8a, 0x3d,
  0x9c, 0x02, 0xb6, 0xbd, 0xf8, 0x76, 0x8e, 0xbb, 0xb9, 0x3a, 0x61, 0xbd,
  0x4e, 0x6f, 0x49, 0x3c, 0x39, 0xc5, 0x34, 0xbe, 0x01, 0x34, 0x95, 0xbe,
  0x6c, 0xdf, 0x95, 0xbc, 0xec, 0xbe, 0xf8, 0xbd, 0xed, 0x59, 0x38, 0xbe,
  0x68, 0x89, 0x84, 0x3d, 0x82, 0xb8, 0x90, 0xbd, 0x6e, 0x1d, 0x41, 0x3d,
  0xcc, 0x35, 0x16, 0x3e, 0x2b, 0xf0, 0xe5, 0xbc, 0x60, 0x6b, 0xe5, 0x3d,
  0xd1, 0x2e, 0x80, 0xbd, 0xb6, 0x66, 0x66, 0xbe, 0xbf, 0x56, 0x5e, 0xbe,
  0x91, 0x80, 0x40, 0xbe, 0x23, 0x5c, 0xfd, 0xbd, 0x2e, 0xe6, 0xf0, 0x3b,
  0xb0, 0x7c, 0xb4, 0xbd, 0x8f, 0x2f, 0x4e, 0xbd, 0xe3, 0xac, 0x41, 0xbe,
  0xbe, 0x07, 0x32, 0xbe, 0xdf, 0xf5, 0x98, 0xbd, 0xb5, 0x77, 0xbe, 0x3d,
  0xab, 0xad, 0x27, 0x3d, 0xc6, 0x52, 0xd3, 0xbc, 0x48, 0xaf, 0x5a, 0xbe,
  0xcb, 0x4f, 0x3b, 0xbd, 0xdd, 0x98, 0x66, 0xbe, 0x98, 0xe3, 0xd4, 0xbd,
  0x34, 0x88, 0x19, 0x3e, 0xa9, 0xd0, 0x67, 0xbe, 0xb4, 0x50, 0xb9, 0x3b,
  0x18, 0x19, 0x20, 0xbe, 0xe7, 0x83, 0x8e, 0xbd, 0x2c, 0x76, 0x16, 0x3e,
  0x1a, 0xf2, 0xf8, 0xbd, 0xcc, 0xb1, 0x03, 0x3c, 0x48, 0xfb, 0xfb, 0x3d,
  0x63, 0x74, 0x11, 0x3e, 0x2c, 0x70, 0x31, 0xbc, 0x6e, 0x28, 0x42, 0xbd,
  0x53, 0x40, 0x33, 0x3e, 0xe9, 0x93, 0xfe, 0x3d, 0x45, 0x9a, 0xd4, 0x3c,
  0x99, 0x8d, 0xce, 0x3c, 0x20, 0x8d, 0xd5, 0x3d, 0x25, 0x9e, 0x90, 0xbe,
  0x84, 0xc0, 0x9c, 0xbd, 0xbf, 0x00, 0x0a, 0x3e, 0x6e, 0xde, 0xc8, 0x3d,
  0x56, 0x19, 0x81, 0xbe, 0xe6, 0x46, 0xaa, 0xbe, 0x9d, 0x93, 0x2d, 0xbd,
  0xcc, 0x05, 0xab, 0xbe, 0xee, 0x3d, 0xa5, 0xbd, 0x5f, 0x6f, 0x00, 0xbe,
  0x09, 0xfa, 0x55, 0x3e, 0x7a, 0x78, 0x71, 0x3b, 0xd6, 0xe7, 0x9a, 0xbd,
  0xa4, 0x67, 0xef, 0x3d, 0x53, 0xa2, 0x0d, 0x3e, 0x93, 0x68, 0x08, 0x3e,
  0xa5, 0x73, 0x4c, 0x3e, 0x9c, 0x0e, 0xf0, 0xbd, 0x8b, 0xc0, 0x8c, 0xbd,
  0xb1, 0x74, 0x75, 0x3e, 0x05, 0x25, 0xd9, 0xbe, 0xaa, 0xf2, 0xff, 0xff,
  0x04, 0x00, 0x00, 0x00, 0x00, 0x04, 0x00, 0x00, 0xb5, 0xed, 0x8b, 0x3d,
  0x0f, 0xa0, 0xca, 0xbe, 0x4b, 0x52, 0x88, 0x3e, 0x88, 0x62, 0xe6, 0xbd,
  0x36, 0xab, 0x17, 0xbe, 0x0b, 0xde, 0x08, 0xbe, 0x7e, 0x70, 0x78, 0xbe,
  0x83, 0x32, 0x89, 0x3d, 0xbe, 0x91, 0xfa, 0xbe, 0xc7, 0x38, 0x97, 0xbe,
  0x07, 0x11, 0xbd, 0xbe, 0xc4, 0x50, 0xfd, 0xbe, 0x61, 0x35, 0x76, 0x3e,
  0x8a, 0x66, 0x99, 0x3e, 0xdf, 0x88, 0x81, 0xbc, 0xe4, 0xbe, 0x96, 0xbe,
  0xcd, 0x2e, 0xd2, 0xbd, 0x0b, 0x1d, 0x12, 0xbe, 0xfc, 0x05, 0x22, 0xbd,
  0xd4, 0x14, 0x2d, 0xbd, 0x00, 0x71, 0xa1, 0x3e, 0x6e, 0xcd, 0x0a, 0x3e,
  0x9d, 0xe3, 0xd3, 0xbd, 0x55, 0x1a, 0x52, 0x3e, 0x2a, 0x26, 0xce, 0xbd,
  0x29, 0x1f, 0x92, 0x3e, 0x4a, 0xb0, 0x4b, 0x3c, 0x78, 0x19, 0xca, 0xbc,
  0xce, 0x75, 0x5a, 0x3e, 0x23, 0xed, 0x48, 0x3e, 0x58, 0xb0, 0x60, 0x3e,
  0x23, 0x47, 0xa7, 0xbe, 0x38, 0x75, 0x6a, 0xbd, 0x3b, 0xd5, 0x30, 0xbe,
  0x8e, 0x75, 0x9a, 0x3d, 0x42, 0x7a, 0xa6, 0xbd, 0xa8, 0x08, 0x2c, 0x3e,
  0xd4, 0x91, 0xb5, 0x3d, 0xde, 0x50, 0x07, 0xba, 0x6f, 0xad, 0xdf, 0x3d,
  0x4a, 0xbf, 0x8e, 0x3d, 0x2f, 0x91, 0xb2, 0x3e, 0x98, 0x0a, 0x9f, 0xbd,
  0x6e, 0xb7, 0xbb, 0xbd, 0x8d, 0xf3, 0x37, 0xbe, 0x9b, 0x4d, 0x44, 0xbe,
  0x87, 0xa2, 0x3f, 0xbe, 0x00, 0x26, 0x1b, 0xbe, 0x1d, 0x23, 0x33, 0xbc,
  0x9f, 0x80, 0xa0, 0xbd, 0xc8, 0x61, 0x35, 0x3c, 0xd4, 0x0a, 0x35, 0xbe,
  0xda, 0xa0, 0x29, 0x3c, 0x17, 0x27, 0xa0, 0xbd, 0x32, 0x87, 0xeb, 0x3d,
  0xfa, 0xd4, 0x54, 0xbe, 0x1b, 0xe6, 0x26, 0xbd, 0xe5, 0x6b, 0xa0, 0x3e,
  0x74, 0xac, 0x86, 0x3e, 0x1c, 0x52, 0x5c, 0xbd, 0xf3, 0xfe, 0x6d, 0x3e,
  0x82, 0xd1, 0x44, 0xbd, 0x15, 0xf9, 0x4e, 0xbb, 0x61, 0xe6, 0xdf, 0xbd,
  0x61, 0x7d, 0x8b, 0xbd, 0x6d, 0xe7, 0x27, 0x3d, 0x5c, 0xc0, 0xad, 0x3d,
  0x85, 0x46, 0xe3, 0x3a, 0xff, 0x7f, 0x96, 0x3d, 0x71, 0x88, 0x37, 0xbe,
  0x92, 0x76, 0xeb, 0x3d, 0x1c, 0x71, 0x8f, 0x3d, 0x0b, 0x55, 0x64, 0xbe,
  0x3c, 0x09, 0xe6, 0xbd, 0xb4, 0xd5, 0x89, 0xbe, 0x71, 0xb6, 0x95, 0x3e,
  0xba, 0xc3, 0x8e, 0x3a, 0xb5, 0x33, 0x38, 0x3c, 0xb8, 0xe1, 0xc7, 0xbd,
  0x50, 0x7d, 0xa8, 0xbd, 0xa5, 0xff, 0x04, 0x3e, 0xb3, 0xd4, 0x13, 0xbd,
  0x58, 0x95, 0x78, 0x3d, 0x09, 0xa6, 0x81, 0xbe, 0xd5, 0x2a, 0x74, 0xbd,
  0xcc, 0x03, 0x25, 0x3e, 0x09, 0xdb, 0x85, 0xbe, 0xc0, 0x51, 0xaf, 0xbc,
  0x83, 0x9d, 0xca, 0x3b, 0xce, 0x33, 0x73, 0x3e, 0x56, 0x8a, 0xd7, 0x3d,
  0x28, 0xf8, 0x19, 0xbe, 0x84, 0xc2, 0xa6, 0x3d, 0x8c, 0xef, 0xce, 0x3d,
  0x08, 0xf2, 0xcf, 0x3d, 0x4b, 0x33, 0xa6, 0xbe, 0xfd, 0x63, 0x9e, 0xbc,
  0x48, 0x6f, 0x73, 0xbe, 0x49, 0xbd, 0xb1, 0x3e, 0xc7, 0x7a, 0x8d, 0x3d,
  0xbc, 0x9b, 0x9e, 0xbd, 0x1b, 0xd5, 0xc0, 0x3d, 0x08, 0xab, 0x4e, 0x3d,
  0xb1, 0xf6, 0x25, 0xbe, 0x7d, 0x49, 0xb6, 0xbe, 0xd6, 0x64, 0x25, 0x3e,
  0x1e, 0xf4, 0xd0, 0x3d, 0x2e, 0x17, 0x58, 0xbd, 0xf8, 0xbd, 0xe0, 0xbc,
  0xed, 0x6c, 0xfd, 0x3d, 0x7e, 0x7e, 0x87, 0xbe, 0x17, 0x68, 0x08, 0x3d,
  0x9f, 0x09, 0x6a, 0xb9, 0xe1, 0x25, 0xd4, 0x3d, 0x17, 0x16, 0x2e, 0xbe,
  0x8d, 0x92, 0xb8, 0xbd, 0xf5, 0xbb, 0x2c, 0x3d, 0x94, 0x9e, 0x53, 0x3d,
  0xe9, 0xc3, 0x1f, 0x3e, 0x7e, 0x0c, 0xb1, 0xbd, 0xb2, 0xbe, 0x46, 0x3e,
  0xe6, 0xcb, 0xa4, 0x3d, 0x88, 0xaa, 0xc5, 0xbd, 0xd3, 0xf3, 0x29, 0x3e,
  0x73, 0xda, 0xc6, 0x3e, 0x41, 0x86, 0x69, 0x3c, 0x64, 0x45, 0x31, 0xbe,
  0xb5, 0xa2, 0x82, 0x3e, 0x80, 0xf3, 0x17, 0xbd, 0x6c, 0x02, 0x9d, 0xbe,
  0x1b, 0xb4, 0x41, 0x3d, 0xaf, 0x9e, 0xa3, 0xbe, 0x17, 0x00, 0xe0, 0xbd,
  0x70, 0x80, 0x3e, 0xbe, 0x7f, 0x2f, 0x81, 0x3e, 0x40, 0xf5, 0x93, 0x3e,
  0x31, 0x52, 0xa7, 0xbe, 0x2c, 0x9e, 0x4e, 0xbd, 0x64, 0x59, 0x3c, 0xbd,
  0xc4, 0xd5, 0xf6, 0xbe, 0x03, 0xb7, 0x00, 0x3f, 0xb0, 0xa7, 0xb3, 0x3e,
  0x06, 0xc1, 0xd1, 0x3d, 0x5c, 0x82, 0xb7, 0xbd, 0xe7, 0xe7, 0x91, 0x3e,
  0x06, 0x94, 0x97, 0x3e, 0x54, 0x84, 0x86, 0x3e, 0x02, 0xc6, 0xe6, 0x3a,
  0xb4, 0x25, 0xdf, 0xbd, 0x3e, 0x91, 0x0c, 0xbe, 0x63, 0x2b, 0x59, 0x3d,
  0x5b, 0xab, 0x38, 0x3e, 0xc7, 0xeb, 0xdd, 0xbe, 0xc4, 0x51, 0x0d, 0x3e,
  0xcd, 0x02, 0x2e, 0x3e, 0x4e, 0x5a, 0xfc, 0xbd, 0xee, 0xac, 0x8a, 0xbc,
  0x4e, 0x9e, 0x7d, 0x3e, 0x46, 0xf1, 0x48, 0x3d, 0x73, 0x21, 0x97, 0x3e,
  0xab, 0x40, 0x64, 0x3e, 0xfa, 0xad, 0x01, 0xbe, 0x1b, 0x32, 0x4e, 0xbe,
  0x20, 0x30, 0x77, 0x3d, 0x9b, 0x89, 0x89, 0x3e, 0x90, 0xa9, 0x1e, 0xbe,
  0xad, 0xbf, 0x77, 0xbe, 0xb0, 0x35, 0xc5, 0x3e, 0x4e, 0x3b, 0xdd, 0xbd,
  0x85, 0x97, 0x11, 0xbd, 0x8f, 0x66, 0x66, 0x3e, 0x33, 0x47, 0xaa, 0xbc,
  0x74, 0x97, 0x8b, 0xbe, 0x16, 0xa5, 0xed, 0x3d, 0xc0, 0xc8, 0x8a, 0x3d,
  0x6a, 0xa0, 0x30, 0xbd, 0x52, 0x26, 0x74, 0x3e, 0x65, 0xfd, 0xef, 0x3e,
  0x19, 0x2b, 0x80, 0x3e, 0xf8, 0x01, 0xb2, 0x3c, 0xbe, 0xc2, 0x8a, 0x3d,
  0xe0, 0xd7, 0x99, 0xbe, 0x15, 0x76, 0x5a, 0xbe, 0xa3, 0xe5, 0x31, 0x3d,
  0x45, 0xa0, 0x11, 0xbe, 0x3d, 0x91, 0xc4, 0x3e, 0xd2, 0x9c, 0x18, 0x3f,
  0xf4, 0x98, 0x93, 0xbe, 0x89, 0x87, 0xb7, 0x3d, 0x71, 0x02, 0xb5, 0xbb,
  0x43, 0xa2, 0xb4, 0x3e, 0x6e, 0xbb, 0x1a, 0x3e, 0x12, 0xe1, 0x0b, 0x3e,
  0x08, 0x0c, 0x7a, 0x3d, 0x82, 0x2e, 0x3c, 0xbe, 0x80, 0xef, 0xb0, 0x3e,
  0x10, 0xb8, 0x47, 0x3e, 0xf5, 0xba, 0xec, 0xbd, 0x7a, 0xda, 0x1b, 0x3d,
  0x00, 0x96, 0x82, 0xbe, 0x15, 0xef, 0xa1, 0x3a, 0x64, 0x54, 0x43, 0x3e,
  0xe2, 0xe1, 0xd4, 0x3d, 0xf8, 0x0d, 0x03, 0x3d, 0x61, 0x7a, 0xe1, 0x3b,
  0x64, 0xcc, 0x41, 0x3d, 0x70, 0x25, 0x4d, 0x3e, 0xf2, 0x67, 0xb1, 0x3d,
  0x47, 0xa0, 0x61, 0xbe, 0x58, 0xa9, 0x1e, 0x3e, 0xc3, 0x1e, 0x37, 0xbe,
  0x7c, 0x65, 0x24, 0x3e, 0xdb, 0x99, 0xb8, 0xbc, 0x1b, 0x49, 0x80, 0xbd,
  0x7f, 0x1d, 0x0d, 0xbe, 0x62, 0x90, 0x80, 0xbe, 0x75, 0x41, 0x34, 0xbd,
  0xfd, 0x7a, 0xd6, 0x3d, 0x73, 0xa9, 0x8c, 0xbd, 0x20, 0x9b, 0x9b, 0xbd,
  0x7e, 0x88, 0x49, 0xbe, 0xc6, 0x80, 0xa1, 0xbe, 0x7f, 0xcc, 0x9b, 0x3e,
  0xae, 0x0d, 0x41, 0x3e, 0x06, 0x8d, 0x33, 0x3a, 0x14, 0xd2, 0x13, 0xbe,
  0xa4, 0x85, 0xb3, 0xbc, 0xb2, 0x0a, 0xbd, 0x3c, 0x7a, 0x07, 0x86, 0x3d,
  0x12, 0xd9, 0x0b, 0xbc, 0x50, 0x84, 0x23, 0xbc, 0xb5, 0x31, 0xc2, 0xbd,
  0x6d, 0x84, 0x86, 0xbc, 0xda, 0x3a, 0x4d, 0x3e, 0xc5, 0xad, 0x99, 0xbd,
  0xde, 0x53, 0x7f, 0x3e, 0x0f, 0x01, 0xc9, 0xbb, 0x52, 0x7b, 0x87, 0x3b,
  0xa6, 0x2f, 0xae, 0x3d, 0x13, 0xc0, 0x80, 0xbe, 0x5b, 0xb4, 0xbc, 0xbd,
  0xe3, 0xe2, 0x1f, 0x3e, 0x27, 0x7d, 0xe8, 0xbd, 0x22, 0x99, 0x0f, 0xbc,
  0x80, 0xe6, 0x1a, 0x3c, 0xb2, 0xfe, 0x69, 0x3d, 0x3d, 0x61, 0x9d, 0xbd,
  0x51, 0x21, 0x0e, 0xbd, 0x25, 0x66, 0xb6, 0xbd, 0xc8, 0xb8, 0xb0, 0x3d,
  0x41, 0xe5, 0x6f, 0xbd, 0x40, 0x74, 0x80, 0xbe, 0xaf, 0xe5, 0x35, 0x3e,
  0xda, 0xd9, 0x93, 0x3d, 0x3f, 0x34, 0x0f, 0xbe, 0x69, 0x6f, 0x63, 0xbd,
  0xb6, 0xf6, 0xff, 0xff, 0x04, 0x00, 0x00, 0x00, 0x00, 0x04, 0x00, 0x00,
  0xde, 0x60, 0x19, 0x3e, 0x46, 0x4a, 0xb1, 0x3d, 0x28, 0xf1, 0x03, 0xbe,
  0xbe, 0xd6, 0xf9, 0x3d, 0x46, 0x72, 0x49, 0x3e, 0x87, 0xc3, 0x55, 0xbe,
  0x93, 0xd3, 0xe6, 0x3d, 0x9c, 0xbc, 0xab, 0xbe, 0x92, 0x0a, 0x2e, 0x3e,
  0x6a, 0xe6, 0xb2, 0xbe, 0xb2, 0xe1, 0xb5, 0xbc, 0x28, 0xd7, 0x99, 0xbe,
  0x0e, 0x8b, 0xd7, 0x3d, 0xe6, 0xda, 0xbf, 0xbe, 0xaf, 0x8a, 0x19, 0x3e,
  0xb8, 0xaa, 0x54, 0xbd, 0xa4, 0xf9, 0x62, 0x3d, 0x84, 0xdc, 0x8d, 0xbb,
  0xca, 0x09, 0x10, 0x3d, 0xad, 0xf6, 0x83, 0x3e, 0xfa, 0xd1, 0x34, 0xbe,
  0x04, 0x86, 0x85, 0xbd, 0x05, 0x84, 0x28, 0x3e, 0x39, 0x90, 0x9b, 0xbe,
  0x39, 0x35, 0x08, 0xbe, 0xfe, 0x46, 0x0a, 0xbe, 0xb2, 0x6f, 0x48, 0xbb,
  0x01, 0x77, 0x5c, 0xbc, 0xcc, 0x66, 0x1b, 0x3e, 0xfe, 0x3a, 0x8e, 0x3e,
  0x62, 0x82, 0xeb, 0xbb, 0x26, 0xba, 0x8d, 0xbd, 0xdd, 0x83, 0x8a, 0xbe,
  0xcb, 0x0f, 0x18, 0xbe, 0xee, 0xb9, 0x94, 0x3e, 0x02, 0x7f, 0x95, 0x3b,
  0x33, 0x74, 0x39, 0x3d, 0xcb, 0x1d, 0xae, 0x3c, 0xda, 0x35, 0x43, 0xbe,
  0x26, 0x0d, 0x6e, 0xbe, 0x6d, 0x37, 0x8b, 0x3d, 0x33, 0x1a, 0xa0, 0xbe,
  0x6a, 0x3f, 0xa0, 0xbd, 0x50, 0xb7, 0x8e, 0xbe, 0x9d, 0xda, 0x9c, 0x3e,
  0xff, 0x8c, 0x5e, 0x3d, 0x5a, 0xf8, 0xde, 0xbd, 0xe1, 0x87, 0xd7, 0x3c,
  0x7f, 0x40, 0x09, 0x3e, 0x8e, 0x64, 0xc8, 0x3d, 0xd9, 0xe8, 0x08, 0xbe,
  0x0f, 0x1f, 0xeb, 0x3d, 0x7e, 0x46, 0xb7, 0x3d, 0x9d, 0xaf, 0xab, 0xbd,
  0xe7, 0xb2, 0x81, 0xbd, 0xfd, 0x12, 0x87, 0xbe, 0x38, 0x11, 0x55, 0x3e,
  0x6a, 0x77, 0x36, 0x3e, 0x75, 0x3f, 0x02, 0xbd, 0x71, 0xd1, 0x18, 0xbd,
  0x96, 0xbd, 0x41, 0xbd, 0x39, 0xb6, 0x77, 0xbe, 0xf4, 0x54, 0x93, 0x3d,
  0xfe, 0x3d, 0x04, 0x3d, 0xa0, 0x90, 0x41, 0xbd, 0xcf, 0xfc, 0xaf, 0x3c,
  0xa5, 0x37, 0x2f, 0xbe, 0xe2, 0x3c, 0xa8, 0x3e, 0x7a, 0xe1, 0x35, 0xbd,
  0x32, 0xbb, 0x36, 0xbe, 0xe2, 0x64, 0x5e, 0xbd, 0xbc, 0x41, 0x7b, 0x3c,
  0x81, 0x63, 0x82, 0x3d, 0xdb, 0x0a, 0x87, 0xbb, 0xe3, 0x53, 0xd4, 0xbd,
  0xfa, 0x48, 0xec, 0x3c, 0x73, 0x1d, 0x52, 0x3d, 0x43, 0xc7, 0x00, 0xbc,
  0xa6, 0x67, 0x89, 0x3c, 0x48, 0xc7, 0xc0, 0x3d, 0x8b, 0x5b, 0x6d, 0xbe,
  0x66, 0x6c, 0x8b, 0xbc, 0x0d, 0x0f, 0x02, 0xbe, 0x01, 0x8e, 0xf3, 0x3c,
  0xed, 0xa1, 0x63, 0xbe, 0xa3, 0xb8, 0x81, 0x3e, 0x96, 0x8a, 0x0c, 0x3d,
  0x82, 0xd3, 0xba, 0x3d, 0xb2, 0x1b, 0x34, 0x3e, 0x2d, 0x7a, 0x3c, 0x3e,
  0xf5, 0xf3, 0x3a, 0xbc, 0x2a, 0x11, 0x8e, 0x3e, 0x1d, 0x48, 0xf3, 0xbd,
  0x1a, 0x04, 0x3e, 0x3e, 0x61, 0x27, 0x84, 0x3c, 0x96, 0xb4, 0x21, 0x3e,
  0x63, 0x0e, 0x76, 0xbc, 0xe2, 0x1d, 0x90, 0x3c, 0xdf, 0x27, 0x8f, 0xbd,
  0x50, 0x66, 0x13, 0x3e, 0x39, 0xeb, 0x1d, 0x3e, 0x3d, 0xc9, 0xbc, 0x3e,
  0xd2, 0x1d, 0x43, 0x3e, 0x36, 0x20, 0x8d, 0xbe, 0xc3, 0xf6, 0xcc, 0xbe,
  0x3a, 0x36, 0x9c, 0xbd, 0xa5, 0x29, 0x19, 0xbe, 0x0a, 0x65, 0x0d, 0xbe,
  0x98, 0x0e, 0xa8, 0x3e, 0x63, 0x82, 0x8b, 0xbe, 0x94, 0xd5, 0x99, 0xbd,
  0x86, 0xf8, 0x55, 0x3e, 0x96, 0xb3, 0xaf, 0x3e, 0x18, 0x00, 0x68, 0xbe,
  0xa0, 0x2a, 0xd9, 0x3d, 0xbb, 0x15, 0xbd, 0xbc, 0x44, 0x08, 0x5f, 0xbe,
  0xdf, 0x10, 0xa4, 0x3d, 0x70, 0xab, 0x88, 0x3e, 0x6d, 0xd8, 0x9a, 0x3e,
  0x20, 0xb8, 0x09, 0xbe, 0x53, 0xd8, 0x2a, 0x3e, 0x6f, 0x53, 0x2e, 0x3d,
  0x76, 0x8d, 0x8b, 0xbc, 0x94, 0xcf, 0x1f, 0xbe, 0x3a, 0x22, 0x8f, 0x3e,
  0x55, 0x07, 0x77, 0x3d, 0xdf, 0x09, 0x9b, 0xbc, 0xa3, 0x4c, 0x88, 0xbe,
  0xb3, 0x30, 0xf4, 0xbd, 0x1f, 0xb1, 0xf5, 0xbe, 0xf6, 0x6c, 0x02, 0xbe,
  0x93, 0x1f, 0x98, 0xbe, 0x3b, 0xf1, 0xe7, 0x3e, 0x18, 0x28, 0xe1, 0x3d,
  0x2b, 0x56, 0xb7, 0xbb, 0xeb, 0xfc, 0xa7, 0x3d, 0xcc, 0x4a, 0x8d, 0x3d,
  0xe2, 0xe1, 0x13, 0xbe, 0x62, 0x1d, 0xb8, 0x3e, 0x74, 0x69, 0xdc, 0xbd,
  0x4e, 0x1d, 0xda, 0x3e, 0x61, 0x8f, 0x71, 0x3e, 0x3a, 0xc4, 0xc2, 0xbd,
  0x91, 0x4e, 0x2f, 0xbe, 0x6b, 0x40, 0xa0, 0x3e, 0x22, 0xaa, 0xe2, 0xbe,
  0xa7, 0x2b, 0xc8, 0xbd, 0xd9, 0xa7, 0x5f, 0xbd, 0xf0, 0xb2, 0x10, 0x3e,
  0x54, 0x27, 0xa2, 0xbe, 0xaa, 0xb6, 0x01, 0x3c, 0xf5, 0x14, 0x51, 0xbd,
  0xa4, 0x27, 0xba, 0xbb, 0x21, 0x51, 0xcc, 0x3d, 0x38, 0x3d, 0x6c, 0x3d,
  0xe0, 0x55, 0x13, 0xbd, 0xa9, 0x5a, 0xd0, 0xbc, 0x3d, 0xcf, 0xa8, 0x3e,
  0x6b, 0x45, 0x80, 0xbe, 0x02, 0x8e, 0xe1, 0xbd, 0x95, 0x90, 0x87, 0xbd,
  0x7a, 0x38, 0x37, 0xbe, 0x94, 0xd9, 0xf4, 0x3d, 0x61, 0xe8, 0xb0, 0xbe,
  0x90, 0x4b, 0x14, 0xbe, 0xe7, 0x53, 0x5e, 0xbe, 0x06, 0x48, 0x34, 0x3e,
  0x79, 0xac, 0x2a, 0x3e, 0x24, 0xd0, 0x4a, 0x3e, 0x9d, 0x58, 0xb9, 0xbd,
  0x16, 0x97, 0x3f, 0xbe, 0x4c, 0x9a, 0x54, 0x3e, 0x1e, 0x5a, 0x15, 0x3e,
  0x5c, 0x7a, 0x48, 0x3e, 0xe7, 0xd8, 0x04, 0x3e, 0x76, 0xaf, 0x4d, 0xbe,
  0xf0, 0x7b, 0x17, 0xbe, 0x05, 0x8a, 0x0b, 0xbe, 0xac, 0xdb, 0x9d, 0xbe,
  0x7b, 0x4a, 0x1b, 0x3e, 0xe2, 0x20, 0x4a, 0x3e, 0xaf, 0x6b, 0xaa, 0x3c,
  0x5b, 0xbe, 0xa2, 0xbd, 0xa6, 0xba, 0x6e, 0x3d, 0xdd, 0xcb, 0x13, 0xbd,
  0xba, 0xb1, 0x5d, 0xbe, 0x9b, 0x9f, 0xc9, 0x3d, 0xb7, 0x13, 0x12, 0xbf,
  0x3b, 0xf0, 0x28, 0xbd, 0xab, 0xdc, 0x36, 0x3e, 0x22, 0xc8, 0x04, 0xbd,
  0xfb, 0x8b, 0xbd, 0xbd, 0xd1, 0x56, 0x84, 0x3e, 0xd8, 0xac, 0xd9, 0xbd,
  0x96, 0x6a, 0x17, 0xbc, 0x54, 0x70, 0x5f, 0xbe, 0x3b, 0xbf, 0xb4, 0xbe,
  0x11, 0x87, 0xc6, 0x3d, 0x93, 0x20, 0xd1, 0x3d, 0xf0, 0xb3, 0x14, 0xbd,
  0xf7, 0xf8, 0xed, 0x3d, 0x13, 0xef, 0x1b, 0x3e, 0x5d, 0xa8, 0x4c, 0xbe,
  0xac, 0xe6, 0x2a, 0x3e, 0x0b, 0x6d, 0xc0, 0xbd, 0x9a, 0x68, 0xc5, 0xbd,
  0xb2, 0x93, 0x28, 0x3e, 0xa8, 0x8c, 0x45, 0xbe, 0x74, 0x0c, 0x21, 0x3d,
  0x1e, 0xfe, 0x2a, 0x3e, 0xe3, 0x64, 0xbe, 0x3b, 0xe7, 0xd8, 0x96, 0x3c,
  0x7c, 0x74, 0x10, 0xbe, 0xe0, 0x92, 0x93, 0xbd, 0x40, 0x8e, 0x89, 0xbe,
  0x8c, 0xc6, 0x62, 0xbe, 0x21, 0x07, 0xc1, 0x3c, 0x6a, 0x2c, 0x10, 0x3e,
  0x88, 0x34, 0xec, 0x3c, 0x21, 0x0d, 0x96, 0x3e, 0xaa, 0xf0, 0xb3, 0xbc,
  0xed, 0x4a, 0xd0, 0x3d, 0x82, 0xf0, 0x3c, 0xbb, 0x6d, 0x7a, 0xa4, 0xbe,
  0xaa, 0x81, 0x17, 0x3c, 0xd4, 0xbc, 0xf7, 0x3d, 0x25, 0x53, 0x54, 0x3e,
  0xfd, 0xac, 0x4b, 0xbe, 0x06, 0xcc, 0xba, 0x3b, 0x66, 0x2b, 0x47, 0xbe,
  0xb3, 0x31, 0x4c, 0x3d, 0xb7, 0x85, 0x96, 0xbe, 0xb2, 0xda, 0x1a, 0xba,
  0x21, 0x6b, 0x96, 0xbd, 0x47, 0x15, 0x07, 0x3e, 0x97, 0x5c, 0x74, 0xbd,
  0x3c, 0x17, 0xee, 0xbd, 0x28, 0xbf, 0x80, 0x3d, 0x7b, 0xf7, 0xe6, 0x3d,
  0x4e, 0x79, 0x10, 0xbe, 0xf8, 0x38, 0x02, 0x3e, 0x61, 0xc0, 0x25, 0x3e,
  0xa9, 0xed, 0x80, 0xbd, 0x09, 0xd5, 0xdd, 0x3d, 0x54, 0xae, 0x8c, 0xbe,
  0xa7, 0x50, 0x9c, 0x3d, 0x46, 0x9c, 0x31, 0xbe, 0xd1, 0x36, 0x84, 0xbd,
  0xaf, 0xeb, 0x57, 0x3e, 0xbb, 0x49, 0x41, 0x3c, 0xe3, 0xb2, 0x1d, 0xbe,
  0x69, 0x4c, 0x44, 0x3e, 0x76, 0x7c, 0xd5, 0xbc, 0xe5, 0x85, 0x1e, 0xbe,
  0xf2, 0xa8, 0x6f, 0xbe, 0xc2, 0xfa, 0xff, 0xff, 0x04, 0x00, 0x00, 0x00,
  0x00, 0x04, 0x00, 0x00, 0x6e, 0x99, 0xcc, 0x3d, 0x26, 0x47, 0xc5, 0x3e,
  0x44, 0xc4, 0x4c, 0x3e, 0x27, 0xe8, 0x28, 0x3e, 0x13, 0x9e, 0x4a, 0xbe,
  0x19, 0x83, 0x5c, 0x3e, 0xa5, 0x69, 0xd2, 0xbd, 0xec, 0xcb, 0x3f, 0x3e,
  0x47, 0x98, 0xe6, 0xbe, 0xb8, 0x17, 0x48, 0xbd, 0xe6, 0xe6, 0xd0, 0x3e,
  0xff, 0xf1, 0x2b, 0x3d, 0xe2, 0xc8, 0xb9, 0x3d, 0x6f, 0x35, 0xbe, 0x3e,
  0x3b, 0x4f, 0xe6, 0x3d, 0x87, 0x19, 0x10, 0xbe, 0xf9, 0x05, 0xcd, 0x3e,
  0x53, 0x87, 0x1a, 0xbc, 0x75, 0x73, 0xbb, 0x3d, 0x2f, 0xd4, 0xa3, 0x3d,
  0x61, 0x12, 0xa3, 0xbe, 0xab, 0xc8, 0x3d, 0xbe, 0xa0, 0x9b, 0x28, 0xbe,
  0xd1, 0xb4, 0xb0, 0x3d, 0xfc, 0x53, 0x8b, 0xbe, 0x95, 0x85, 0xe5, 0xbd,
  0x97, 0xb2, 0x1a, 0x3e, 0x98, 0xc6, 0x6e, 0xbe, 0x12, 0xd8, 0xe0, 0x3d,
  0x03, 0x6d, 0xbd, 0x3c, 0x25, 0x3c, 0xc6, 0x3d, 0x63, 0x19, 0x44, 0xbe,
  0xf1, 0x50, 0x19, 0xbe, 0xd1, 0x7b, 0x86, 0x3d, 0x17, 0x16, 0x8d, 0xbd,
  0xa5, 0x1f, 0x3f, 0x3e, 0x89, 0xc9, 0x92, 0x3d, 0x2d, 0xd4, 0xa6, 0x3d,
  0x77, 0x23, 0x1f, 0xbe, 0x11, 0x0f, 0x0d, 0x3c, 0x5b, 0x77, 0x0d, 0xbe,
  0x40, 0xe1, 0x7a, 0xbc, 0xef, 0x05, 0xd6, 0x3d, 0xc9, 0xb0, 0x78, 0x3e,
  0x30, 0x6b, 0xe2, 0xbd, 0x5c, 0x97, 0x83, 0xbd, 0x6f, 0x69, 0xa9, 0x3d,
  0xbd, 0xeb, 0x1f, 0xbe, 0xc7, 0x6a, 0x39, 0x3d, 0x73, 0x15, 0x8f, 0x3e,
  0x74, 0x59, 0x3d, 0xbd, 0xe9, 0x4c, 0x10, 0x3e, 0x99, 0x02, 0x1e, 0xbd,
  0x00, 0x38, 0xb1, 0xbe, 0x7d, 0xd6, 0x88, 0xbe, 0x93, 0x1b, 0x1d, 0xbd,
  0xfb, 0x8c, 0x54, 0xbc, 0x7d, 0x33, 0x22, 0x3e, 0x6f, 0x20, 0x2d, 0xbe,
  0x56, 0x57, 0x06, 0xbe, 0x38, 0xe0, 0xea, 0xbc, 0x76, 0xe8, 0xbb, 0x3e,
  0xf5, 0x90, 0x53, 0x3e, 0xa6, 0x0b, 0x4d, 0x3e, 0x54, 0x5c, 0xe2, 0x3e,
  0x5d, 0x2e, 0x83, 0x3d, 0x82, 0x58, 0x62, 0xbe, 0xfb, 0xe1, 0x85, 0xbe,
  0x5b, 0xb1, 0xa2, 0xbe, 0x99, 0x1f, 0x3c, 0xbe, 0xfe, 0x08, 0xeb, 0xbe,
  0x2a, 0x2e, 0xbb, 0x3e, 0xef, 0xe1, 0x28, 0xbd, 0x80, 0xa7, 0xee, 0x3d,
  0x46, 0x2e, 0xe0, 0x3d, 0xb3, 0xb1, 0x0d, 0x3d, 0x75, 0xd4, 0x7f, 0xbe,
  0xda, 0x07, 0x08, 0x3f, 0xa7, 0xa9, 0x08, 0x3e, 0xee, 0x39, 0x77, 0x3e,
  0xa4, 0xeb, 0x47, 0x3e, 0x87, 0xc6, 0x73, 0x3e, 0x99, 0x2f, 0x03, 0x3e,
  0x2d, 0x63, 0xc0, 0x3e, 0x8d, 0xba, 0x2f, 0xbe, 0xfc, 0xcb, 0xd5, 0x3d,
  0x47, 0xc5, 0x18, 0xbe, 0x6f, 0xa0, 0xe1, 0x3b, 0x33, 0x05, 0xc8, 0x3c,
  0xe8, 0x11, 0xdd, 0x3d, 0x6f, 0xc3, 0xac, 0x3c, 0x83, 0xe2, 0xdb, 0xbe,
  0xa3, 0x44, 0x51, 0xbd, 0xa5, 0x59, 0x47, 0xbe, 0x66, 0x40, 0xbd, 0x3e,
  0xd0, 0xad, 0x23, 0x3e, 0xc5, 0xf3, 0xd5, 0xbd, 0xf0, 0xf9, 0x92, 0x3c,
  0xbb, 0x97, 0x4c, 0x3e, 0x89, 0x2e, 0x6f, 0x3e, 0x64, 0x3e, 0x20, 0x3e,
  0xa4, 0x3c, 0xaf, 0xbe, 0x54, 0x3a, 0x79, 0x3e, 0x76, 0x6c, 0xd3, 0x3c,
  0x18, 0xdf, 0x43, 0x3e, 0x4f, 0x99, 0x0e, 0x3d, 0xfa, 0xa8, 0xbb, 0x3e,
  0xbf, 0x27, 0x7e, 0xbd, 0x0c, 0xce, 0xe8, 0xbd, 0x1a, 0xb5, 0x36, 0xbe,
  0x65, 0x99, 0x0a, 0x3c, 0xca, 0xdb, 0x11, 0xbe, 0xa9, 0x6f, 0x8a, 0x3d,
  0x4f, 0x44, 0x6d, 0x3e, 0x37, 0xe6, 0x6b, 0xbe, 0x51, 0x5f, 0xdb, 0xbe,
  0xa5, 0xdd, 0xa8, 0xbe, 0x44, 0x24, 0xa7, 0x3d, 0x27, 0xf0, 0xc5, 0xbd,
  0x12, 0x1b, 0x34, 0x3d, 0x1e, 0x6f, 0x79, 0x3d, 0xc6, 0x4d, 0x0c, 0x3e,
  0x1c, 0x7c, 0xa4, 0x3e, 0xc9, 0x2c, 0x42, 0x3e, 0x5a, 0xae, 0x6c, 0xbe,
  0xfb, 0xea, 0xd8, 0xbd, 0xf7, 0x61, 0x26, 0xbe, 0x54, 0xb7, 0xae, 0xbe,
  0xbe, 0xd1, 0x55, 0x3e, 0xe4, 0xf8, 0x14, 0x3d, 0x94, 0x9b, 0x69, 0x3c,
  0x61, 0x89, 0x6c, 0xbd, 0xc4, 0x35, 0xf6, 0x3d, 0x71, 0x70, 0xa3, 0xbe,
  0x4a, 0x97, 0x9b, 0x3d, 0x1b, 0xa4, 0xca, 0x3b, 0xe6, 0x71, 0x94, 0xbc,
  0xd2, 0xdb, 0xe7, 0xbd, 0xc7, 0x8a, 0x53, 0x3c, 0xfc, 0xa7, 0x19, 0x3d,
  0xc0, 0x5e, 0x71, 0x3d, 0x45, 0x77, 0x8e, 0x3d, 0x35, 0xfd, 0x7f, 0xbe,
  0x95, 0x4a, 0xa4, 0xbb, 0x98, 0x8b, 0xd0, 0x3e, 0xd9, 0xc1, 0x5d, 0x3e,
  0x64, 0x12, 0x72, 0xbe, 0x89, 0x70, 0x85, 0x3e, 0x8d, 0xce, 0x1b, 0xbd,
  0x08, 0x85, 0x8f, 0x3d, 0xcc, 0xbf, 0x17, 0xbf, 0x06, 0xfd, 0x2b, 0x3a,
  0xb0, 0xe4, 0xe1, 0xbd, 0x39, 0xe2, 0x16, 0x3d, 0x8e, 0x1e, 0x7e, 0x3d,
  0xbe, 0x79, 0xbb, 0xbe, 0xe3, 0x46, 0xec, 0x3d, 0x2a, 0xd1, 0xcd, 0x3e,
  0x17, 0x3a, 0x2a, 0x3e, 0x75, 0x3b, 0x81, 0x3e, 0xe9, 0x72, 0x0d, 0xbe,
  0x68, 0x41, 0x4b, 0x3e, 0xb8, 0x8b, 0x0c, 0xbd, 0x64, 0x3d, 0x72, 0x3c,
  0xfb, 0x8c, 0x45, 0x3e, 0xba, 0x9b, 0xcb, 0xbd, 0xb8, 0xda, 0x40, 0xbe,
  0x07, 0x7d, 0xaf, 0xbd, 0xc3, 0xc9, 0x98, 0x3e, 0x2c, 0x6c, 0xca, 0xbd,
  0xbe, 0x43, 0x23, 0x3e, 0x39, 0xd8, 0xc5, 0xbc, 0xd6, 0x89, 0x71, 0xbd,
  0x61, 0xb7, 0xc5, 0xbd, 0x96, 0x62, 0x1a, 0x3e, 0xed, 0x61, 0x5b, 0xbe,
  0xcc, 0x91, 0x4e, 0x3e, 0x27, 0xd6, 0xaa, 0xbc, 0xb9, 0x37, 0x8d, 0x3e,
  0x1a, 0x91, 0x38, 0x3e, 0x87, 0xde, 0x1c, 0x3c, 0xb4, 0xce, 0xd1, 0xbe,
  0xda, 0xe7, 0xaa, 0xbc, 0xa2, 0xe3, 0xa7, 0x3d, 0xdc, 0x88, 0x85, 0x3d,
  0xa4, 0x8e, 0xd4, 0xbc, 0x7f, 0xeb, 0x18, 0xbd, 0x6b, 0x11, 0x54, 0xbe,
  0x96, 0x13, 0xbd, 0x3d, 0x17, 0xb6, 0x60, 0xbe, 0xbc, 0xd7, 0x95, 0x3d,
  0x18, 0x0b, 0xc7, 0x3e, 0xb7, 0x39, 0x2d, 0x3e, 0x31, 0x41, 0x94, 0xbd,
  0x3b, 0xea, 0x2b, 0x3e, 0xf2, 0x8d, 0x94, 0x3d, 0x30, 0x5a, 0xa4, 0x3e,
  0xb1, 0xb6, 0x41, 0xbe, 0x5b, 0xde, 0xbd, 0xbd, 0x64, 0x22, 0x01, 0x3e,
  0xf8, 0xba, 0xa9, 0xbe, 0x4b, 0x2a, 0x23, 0xbe, 0x73, 0x07, 0x1c, 0x3d,
  0x6e, 0xb8, 0x20, 0x3e, 0xec, 0xbd, 0x23, 0xbe, 0x8e, 0x5e, 0xc5, 0x3d,
  0xe6, 0x01, 0x71, 0xbd, 0xcc, 0x53, 0x05, 0x3d, 0x1d, 0xc6, 0x69, 0x3d,
  0x64, 0x8a, 0x8f, 0xbb, 0x99, 0xd8, 0x51, 0x3e, 0x25, 0xb8, 0x97, 0x3e,
  0x4e, 0x31, 0xe8, 0xbd, 0x32, 0xf8, 0x6f, 0x3d, 0x71, 0xeb, 0x43, 0xbe,
  0x36, 0x7c, 0xef, 0xbb, 0xf6, 0x32, 0x16, 0xbe, 0x42, 0x33, 0xf0, 0xbd,
  0xf9, 0x24, 0x06, 0xbd, 0x56, 0x5d, 0x5f, 0xbd, 0xa4, 0x6f, 0xe7, 0xbd,
  0xd5, 0xe3, 0xd8, 0x3d, 0xdc, 0x59, 0xd2, 0xbc, 0xaa, 0xe2, 0x4f, 0xbe,
  0x29, 0x52, 0x40, 0xbe, 0x1d, 0x88, 0xc1, 0x3d, 0x28, 0x2c, 0x93, 0xbd,
  0x37, 0x66, 0x0d, 0xbe, 0xa6, 0xf4, 0x9c, 0x3d, 0x42, 0xd8, 0xf8, 0x3c,
  0x7b, 0x93, 0x5b, 0xbe, 0xe7, 0xef, 0x8f, 0x3e, 0xdd, 0x7d, 0x34, 0xbd,
  0x8d, 0x0c, 0x11, 0x3e, 0x9e, 0x01, 0xc9, 0x3e, 0x70, 0xa5, 0xba, 0xbd,
  0x0b, 0x2b, 0x91, 0xbe, 0x6d, 0x38, 0x98, 0x3e, 0xed, 0x7a, 0xbb, 0x3d,
  0xc2, 0xf9, 0x8b, 0xbd, 0x83, 0xc6, 0xe4, 0xbc, 0xa4, 0x6f, 0x6e, 0xbe,
  0x62, 0x99, 0xdc, 0xbd, 0xa5, 0xb6, 0x9f, 0xbc, 0x39, 0xd8, 0x23, 0xbe,
  0x57, 0xc8, 0xcd, 0xbd, 0x5f, 0x44, 0xf3, 0x3c, 0x53, 0x31, 0x68, 0x3e,
  0x10, 0x4e, 0xb5, 0x3d, 0xcd, 0x17, 0x9c, 0x3c, 0xd8, 0xa0, 0x44, 0x3d,
  0x48, 0xd9, 0xb0, 0xbc, 0x7b, 0x89, 0x6b, 0x3e, 0xfa, 0xda, 0x17, 0xbe,
  0x6c, 0xbc, 0xd2, 0xbd, 0x8d, 0x61, 0x80, 0xbc, 0xce, 0xfe, 0xff, 0xff,
  0x04, 0x00, 0x00, 0x00, 0x40, 0x00, 0x00, 0x00, 0x55, 0x0d, 0x58, 0x3e,
  0x8f, 0x7e, 0xa9, 0x3d, 0x1a, 0xd3, 0xb8, 0x3d, 0xf6, 0x55, 0xbf, 0x3e,
  0x42, 0xcc, 0x92, 0x3e, 0x3f, 0x36, 0xaf, 0x3e, 0x86, 0xa0, 0x05, 0x3e,
  0x0d, 0xa0, 0x81, 0x3e, 0x18, 0x7f, 0x58, 0x3e, 0xd7, 0x18, 0x2a, 0x3f,
  0xf5, 0x87, 0xdf, 0x3e, 0x4c, 0xd4, 0x0e, 0x3f, 0x5d, 0x6c, 0x2e, 0x3e,
  0x4c, 0x46, 0x93, 0x3e, 0x4e, 0x72, 0x2f, 0x3f, 0xd5, 0xba, 0x0b, 0x3e,
  0x1a, 0xff, 0xff, 0xff, 0x04, 0x00, 0x00, 0x00, 0x08, 0x00, 0x00, 0x00,
  0x83, 0xe1, 0x17, 0xbd, 0x83, 0xe1, 0x17, 0x3d, 0x2e, 0xff, 0xff, 0xff,
  0x04, 0x00, 0x00, 0x00, 0x40, 0x00, 0x00, 0x00, 0x00, 0x00, 0x00, 0x00,
  0x00, 0x00, 0x00, 0x00, 0x00, 0x00, 0x00, 0x00, 0x00, 0x00, 0x00, 0x00,
  0x00, 0x00, 0x00, 0x00, 0x00, 0x00, 0x00, 0x00, 0x00, 0x00, 0x00, 0x00,
  0x00, 0x00, 0x00, 0x00, 0x00, 0x00, 0x00, 0x00, 0x00, 0x00, 0x00, 0x00,
  0x00, 0x00, 0x00, 0x00, 0x00, 0x00, 0x00, 0x00, 0x00, 0x00, 0x00, 0x00,
  0x00, 0x00, 0x00, 0x00, 0x00, 0x00, 0x00, 0x00, 0x00, 0x00, 0x00, 0x00,
  0x48, 0xf7, 0xff, 0xff, 0x4c, 0xf7, 0xff, 0xff, 0x0f, 0x00, 0x00, 0x00,
  0x4d, 0x4c, 0x49, 0x52, 0x20, 0x43, 0x6f, 0x6e, 0x76, 0x65, 0x72, 0x74,
  0x65, 0x64, 0x2e, 0x00, 0x01, 0x00, 0x00, 0x00, 0x14, 0x00, 0x00, 0x00,
  0x00, 0x00, 0x0e, 0x00, 0x18, 0x00, 0x14, 0x00, 0x10, 0x00, 0x0c, 0x00,
  0x08, 0x00, 0x04, 0x00, 0x0e, 0x00, 0x00, 0x00, 0x14, 0x00, 0x00, 0x00,
  0x1c, 0x00, 0x00, 0x00, 0xb0, 0x01, 0x00, 0x00, 0xb4, 0x01, 0x00, 0x00,
  0xb8, 0x01, 0x00, 0x00, 0x04, 0x00, 0x00, 0x00, 0x6d, 0x61, 0x69, 0x6e,
  0x00, 0x00, 0x00, 0x00, 0x04, 0x00, 0x00, 0x00, 0xf8, 0x00, 0x00, 0x00,
  0x98, 0x00, 0x00, 0x00, 0x40, 0x00, 0x00, 0x00, 0x04, 0x00, 0x00, 0x00,
  0x82, 0xff, 0xff, 0xff, 0x1c, 0x00, 0x00, 0x00, 0x00, 0x00, 0x00, 0x09,
  0x1c, 0x00, 0x00, 0x00, 0x20, 0x00, 0x00, 0x00, 0x02, 0x00, 0x00, 0x00,
  0x00, 0x00, 0x06, 0x00, 0x08, 0x00, 0x04, 0x00, 0x06, 0x00, 0x00, 0x00,
  0x00, 0x00, 0x80, 0x3f, 0x01, 0x00, 0x00, 0x00, 0x16, 0x00, 0x00, 0x00,
  0x01, 0x00, 0x00, 0x00, 0x15, 0x00, 0x00, 0x00, 0xba, 0xff, 0xff, 0xff,
  0x20, 0x00, 0x00, 0x00, 0x00, 0x00, 0x00, 0x08, 0x20, 0x00, 0x00, 0x00,
  0x24, 0x00, 0x00, 0x00, 0x01, 0x00, 0x00, 0x00, 0x00, 0x00, 0x0a, 0x00,
  0x08, 0x00, 0x00, 0x00, 0x00, 0x00, 0x07, 0x00, 0x0a, 0x00, 0x00, 0x00,
  0x00, 0x00, 0x00, 0x01, 0x01, 0x00, 0x00, 0x00, 0x15, 0x00, 0x00, 0x00,
  0x03, 0x00, 0x00, 0x00, 0x14, 0x00, 0x00, 0x00, 0x11, 0x00, 0x00, 0x00,
  0x02, 0x00, 0x00, 0x00, 0x00, 0x00, 0x0e, 0x00, 0x1a, 0x00, 0x14, 0x00,
  0x10, 0x00, 0x0c, 0x00, 0x0b, 0x00, 0x04, 0x00, 0x0e, 0x00, 0x00, 0x00,
  0x20, 0x00, 0x00, 0x00, 0x00, 0x00, 0x00, 0x08, 0x20, 0x00, 0x00, 0x00,
  0x24, 0x00, 0x00, 0x00, 0x01, 0x00, 0x00, 0x00, 0x00, 0x00, 0x0a, 0x00,
  0x08, 0x00, 0x07, 0x00, 0x00, 0x00, 0x06, 0x00, 0x0a, 0x00, 0x00, 0x00,
  0x00, 0x00, 0x01, 0x01, 0x01, 0x00, 0x00, 0x00, 0x14, 0x00, 0x00, 0x00,
  0x03, 0x00, 0x00, 0x00, 0x13, 0x00, 0x00, 0x00, 0x10, 0x00, 0x00, 0x00,
  0x03, 0x00, 0x00, 0x00, 0x00, 0x00, 0x16, 0x00, 0x18, 0x00, 0x00, 0x00,
  0x14, 0x00, 0x10, 0x00, 0x0f, 0x00, 0x08, 0x00, 0x00, 0x00, 0x00, 0x00,
  0x00, 0x00, 0x04, 0x00, 0x16, 0x00, 0x00, 0x00, 0x14, 0x00, 0x00, 0x00,
  0x1c, 0x00, 0x00, 0x00, 0x00, 0x00, 0x00, 0x47, 0x20, 0x00, 0x00, 0x00,
  0x24, 0x00, 0x00, 0x00, 0x00, 0x00, 0x00, 0x00, 0x08, 0x00, 0x0c, 0x00,
  0x0b, 0x00, 0x04, 0x00, 0x08, 0x00, 0x00, 0x00, 0x00, 0x00, 0x20, 0x41,
  0x00, 0x00, 0x00, 0x04, 0x01, 0x00, 0x00, 0x00, 0x13, 0x00, 0x00, 0x00,
  0x18, 0x00, 0x00, 0x00, 0x00, 0x00, 0x00, 0x00, 0x0f, 0x00, 0x00, 0x00,
  0x0e, 0x00, 0x00, 0x00, 0x0d, 0x00, 0x00, 0x00, 0x0c, 0x00, 0x00, 0x00,
  0x07, 0x00, 0x00, 0x00, 0x06, 0x00, 0x00, 0x00, 0x05, 0x00, 0x00, 0x00,
  0x04, 0x00, 0x00, 0x00, 0xff, 0xff, 0xff, 0xff, 0xff, 0xff, 0xff, 0xff,
  0xff, 0xff, 0xff, 0xff, 0x0b, 0x00, 0x00, 0x00, 0x0a, 0x00, 0x00, 0x00,
  0x09, 0x00, 0x00, 0x00, 0x08, 0x00, 0x00, 0x00, 0xff, 0xff, 0xff, 0xff,
  0xff, 0xff, 0xff, 0xff, 0x01, 0x00, 0x00, 0x00, 0x12, 0x00, 0x00, 0x00,
  0xff, 0xff, 0xff, 0xff, 0xff, 0xff, 0xff, 0xff, 0xff, 0xff, 0xff, 0xff,
  0xff, 0xff, 0xff, 0xff, 0x01, 0x00, 0x00, 0x00, 0x16, 0x00, 0x00, 0x00,
  0x01, 0x00, 0x00, 0x00, 0x00, 0x00, 0x00, 0x00, 0x17, 0x00, 0x00, 0x00,
  0x9c, 0x06, 0x00, 0x00, 0x40, 0x06, 0x00, 0x00, 0xd0, 0x05, 0x00, 0x00,
  0x7c, 0x05, 0x00, 0x00, 0x3c, 0x05, 0x00, 0x00, 0xfc, 0x04, 0x00, 0x00,
  0xbc, 0x04, 0x00, 0x00, 0x7c, 0x04, 0x00, 0x00, 0x40, 0x04, 0x00, 0x00,
  0x04, 0x04, 0x00, 0x00, 0xc8, 0x03, 0x00, 0x00, 0x8c, 0x03, 0x00, 0x00,
  0x4c, 0x03, 0x00, 0x00, 0x0c, 0x03, 0x00, 0x00, 0xc8, 0x02, 0x00, 0x00,
  0x84, 0x02, 0x00, 0x00, 0x30, 0x02, 0x00, 0x00, 0xdc, 0x01, 0x00, 0x00,
  0x98, 0x01, 0x00, 0x00, 0x40, 0x01, 0x00, 0x00, 0xc0, 0x00, 0x00, 0x00,
  0x54, 0x00, 0x00, 0x00, 0x04, 0x00, 0x00, 0x00, 0xd6, 0xf9, 0xff, 0xff,
  0x00, 0x00, 0x00, 0x01, 0x10, 0x00, 0x00, 0x00, 0x10, 0x00, 0x00, 0x00,
  0x17, 0x00, 0x00, 0x00, 0x28, 0x00, 0x00, 0x00, 0xc0, 0xf9, 0xff, 0xff,
  0x19, 0x00, 0x00, 0x00, 0x53, 0x74, 0x61, 0x74, 0x65, 0x66, 0x75, 0x6c,
  0x50, 0x61, 0x72, 0x74, 0x69, 0x74, 0x69, 0x6f, 0x6e, 0x65, 0x64, 0x43,
  0x61, 0x6c, 0x6c, 0x3a, 0x30, 0x00, 0x00, 0x00, 0x03, 0x00, 0x00, 0x00,
  0x01, 0x00, 0x00, 0x00, 0x1e, 0x00, 0x00, 0x00, 0x02, 0x00, 0x00, 0x00,
  0x22, 0xfa, 0xff, 0xff, 0x00, 0x00, 0x00, 0x01, 0x10, 0x00, 0x00, 0x00,
  0x10, 0x00, 0x00, 0x00, 0x16, 0x00, 0x00, 0x00, 0x44, 0x00, 0x00, 0x00,
  0x0c, 0xfa, 0xff, 0xff, 0x37, 0x00, 0x00, 0x00, 0x73, 0x65, 0x71, 0x75,
  0x65, 0x6e, 0x74, 0x69, 0x61, 0x6c, 0x2f, 0x64, 0x65, 0x6e, 0x73, 0x65,
  0x5f, 0x31, 0x2f, 0x54, 0x65, 0x6e, 0x73, 0x6f, 0x72, 0x64, 0x6f, 0x74,
  0x3b, 0x73, 0x65, 0x71, 0x75, 0x65, 0x6e, 0x74, 0x69, 0x61, 0x6c, 0x2f,
  0x64, 0x65, 0x6e, 0x73, 0x65, 0x5f, 0x31, 0x2f, 0x42, 0x69, 0x61, 0x73,
  0x41, 0x64, 0x64, 0x00, 0x03, 0x00, 0x00, 0x00, 0x01, 0x00, 0x00, 0x00,
  0x1e, 0x00, 0x00, 0x00, 0x02, 0x00, 0x00, 0x00, 0x8a, 0xfa, 0xff, 0xff,
  0x00, 0x00, 0x00, 0x01, 0x10, 0x00, 0x00, 0x00, 0x10, 0x00, 0x00, 0x00,
  0x15, 0x00, 0x00, 0x00, 0x58, 0x00, 0x00, 0x00, 0x74, 0xfa, 0xff, 0xff,
  0x49, 0x00, 0x00, 0x00, 0x73, 0x65, 0x71, 0x75, 0x65, 0x6e, 0x74, 0x69,
  0x61, 0x6c, 0x2f, 0x64, 0x65, 0x6e, 0x73, 0x65, 0x2f, 0x54, 0x65, 0x6e,
  0x73, 0x6f, 0x72, 0x64, 0x6f, 0x74, 0x3b, 0x73, 0x65, 0x71, 0x75, 0x65,
  0x6e, 0x74, 0x69, 0x61, 0x6c, 0x2f, 0x64, 0x65, 0x6e, 0x73, 0x65, 0x2f,
  0x52, 0x65, 0x6c, 0x75, 0x3b, 0x73, 0x65, 0x71, 0x75, 0x65, 0x6e, 0x74,
  0x69, 0x61, 0x6c, 0x2f, 0x64, 0x65, 0x6e, 0x73, 0x65, 0x2f, 0x42, 0x69,
  0x61, 0x73, 0x41, 0x64, 0x64, 0x00, 0x00, 0x00, 0x03, 0x00, 0x00, 0x00,
  0x01, 0x00, 0x00, 0x00, 0x1e, 0x00, 0x00, 0x00, 0x10, 0x00, 0x00, 0x00,
  0x06, 0xfb, 0xff, 0xff, 0x00, 0x00, 0x00, 0x01, 0x10, 0x00, 0x00, 0x00,
  0x10, 0x00, 0x00, 0x00, 0x14, 0x00, 0x00, 0x00, 0x30, 0x00, 0x00, 0x00,
  0xf0, 0xfa, 0xff, 0xff, 0x20, 0x00, 0x00, 0x00, 0x74, 0x66, 0x6c, 0x2e,
  0x75, 0x6e, 0x69, 0x64, 0x69, 0x72, 0x65, 0x63, 0x74, 0x69, 0x6f, 0x6e,
  0x61, 0x6c, 0x5f, 0x73, 0x65, 0x71, 0x75, 0x65, 0x6e, 0x63, 0x65, 0x5f,
  0x6c, 0x73, 0x74, 0x6d, 0x00, 0x00, 0x00, 0x00, 0x03, 0x00, 0x00, 0x00,
  0x01, 0x00, 0x00, 0x00, 0x1e, 0x00, 0x00, 0x00, 0x10, 0x00, 0x00, 0x00,
  0xb2, 0xfb, 0xff, 0xff, 0x00, 0x00, 0x01, 0x01, 0x0c, 0x00, 0x00, 0x00,
  0x0c, 0x00, 0x00, 0x00, 0x24, 0x00, 0x00, 0x00, 0x40, 0xfb, 0xff, 0xff,
  0x16, 0x00, 0x00, 0x00, 0x73, 0x65, 0x71, 0x75, 0x65, 0x6e, 0x74, 0x69,
  0x61, 0x6c, 0x2f, 0x6c, 0x73, 0x74, 0x6d, 0x2f, 0x7a, 0x65, 0x72, 0x6f,
  0x73, 0x31, 0x00, 0x00, 0x02, 0x00, 0x00, 0x00, 0x01, 0x00, 0x00, 0x00,
  0x10, 0x00, 0x00, 0x00, 0x9a, 0xfb, 0xff, 0xff, 0x00, 0x00, 0x00, 0x01,
  0x10, 0x00, 0x00, 0x00, 0x10, 0x00, 0x00, 0x00, 0x12, 0x00, 0x00, 0x00,
  0x30, 0x00, 0x00, 0x00, 0x84, 0xfb, 0xff, 0xff, 0x23, 0x00, 0x00, 0x00,
  0x73, 0x65, 0x71, 0x75, 0x65, 0x6e, 0x74, 0x69, 0x61, 0x6c, 0x2f, 0x64,
  0x65, 0x6e, 0x73, 0x65, 0x5f, 0x31, 0x2f, 0x54, 0x65, 0x6e, 0x73, 0x6f,
  0x72, 0x64, 0x6f, 0x74, 0x2f, 0x4d, 0x61, 0x74, 0x4d, 0x75, 0x6c, 0x00,
  0x02, 0x00, 0x00, 0x00, 0x02, 0x00, 0x00, 0x00, 0x10, 0x00, 0x00, 0x00,
  0xea, 0xfb, 0xff, 0xff, 0x00, 0x00, 0x00, 0x01, 0x10, 0x00, 0x00, 0x00,
  0x10, 0x00, 0x00, 0x00, 0x11, 0x00, 0x00, 0x00, 0x30, 0x00, 0x00, 0x00,
  0xd4, 0xfb, 0xff, 0xff, 0x21, 0x00, 0x00, 0x00, 0x73, 0x65, 0x71, 0x75,
  0x65, 0x6e, 0x74, 0x69, 0x61, 0x6c, 0x2f, 0x64, 0x65, 0x6e, 0x73, 0x65,
  0x2f, 0x54, 0x65, 0x6e, 0x73, 0x6f, 0x72, 0x64, 0x6f, 0x74, 0x2f, 0x4d,
  0x61, 0x74, 0x4d, 0x75, 0x6c, 0x00, 0x00, 0x00, 0x02, 0x00, 0x00, 0x00,
  0x10, 0x00, 0x00, 0x00, 0x10, 0x00, 0x00, 0x00, 0x3a, 0xfc, 0xff, 0xff,
  0x00, 0x00, 0x00, 0x01, 0x10, 0x00, 0x00, 0x00, 0x10, 0x00, 0x00, 0x00,
  0x10, 0x00, 0x00, 0x00, 0x20, 0x00, 0x00, 0x00, 0x24, 0xfc, 0xff, 0xff,
  0x10, 0x00, 0x00, 0x00, 0x61, 0x72, 0x69, 0x74, 0x68, 0x2e, 0x63, 0x6f,
  0x6e, 0x73, 0x74, 0x61, 0x6e, 0x74, 0x31, 0x31, 0x00, 0x00, 0x00, 0x00,
  0x02, 0x00, 0x00, 0x00, 0x10, 0x00, 0x00, 0x00, 0x05, 0x00, 0x00, 0x00,
  0x7a, 0xfc, 0xff, 0xff, 0x00, 0x00, 0x00, 0x01, 0x10, 0x00, 0x00, 0x00,
  0x10, 0x00, 0x00, 0x00, 0x0f, 0x00, 0x00, 0x00, 0x20, 0x00, 0x00, 0x00,
  0x64, 0xfc, 0xff, 0xff, 0x10, 0x00, 0x00, 0x00, 0x61, 0x72, 0x69, 0x74,
  0x68, 0x2e, 0x63, 0x6f, 0x6e, 0x73, 0x74, 0x61, 0x6e, 0x74, 0x31, 0x30,
  0x00, 0x00, 0x00, 0x00, 0x02, 0x00, 0x00, 0x00, 0x10, 0x00, 0x00, 0x00,
  0x05, 0x00, 0x00, 0x00, 0xba, 0xfc, 0xff, 0xff, 0x00, 0x00, 0x00, 0x01,
  0x10, 0x00, 0x00, 0x00, 0x10, 0x00, 0x00, 0x00, 0x0e, 0x00, 0x00, 0x00,
  0x1c, 0x00, 0x00, 0x00, 0xa4, 0xfc, 0xff, 0xff, 0x0f, 0x00, 0x00, 0x00,
  0x61, 0x72, 0x69, 0x74, 0x68, 0x2e, 0x63, 0x6f, 0x6e, 0x73, 0x74, 0x61,
  0x6e, 0x74, 0x39, 0x00, 0x02, 0x00, 0x00, 0x00, 0x10, 0x00, 0x00, 0x00,
  0x05, 0x00, 0x00, 0x00, 0xf6, 0xfc, 0xff, 0xff, 0x00, 0x00, 0x00, 0x01,
  0x10, 0x00, 0x00, 0x00, 0x10, 0x00, 0x00, 0x00, 0x0d, 0x00, 0x00, 0x00,
  0x1c, 0x00, 0x00, 0x00, 0xe0, 0xfc, 0xff, 0xff, 0x0f, 0x00, 0x00, 0x00,
  0x61, 0x72, 0x69, 0x74, 0x68, 0x2e, 0x63, 0x6f, 0x6e, 0x73, 0x74, 0x61,
  0x6e, 0x74, 0x38, 0x00, 0x02, 0x00, 0x00, 0x00, 0x10, 0x00, 0x00, 0x00,
  0x05, 0x00, 0x00, 0x00, 0x32, 0xfd, 0xff, 0xff, 0x00, 0x00, 0x00, 0x01,
  0x10, 0x00, 0x00, 0x00, 0x10, 0x00, 0x00, 0x00, 0x0c, 0x00, 0x00, 0x00,
  0x1c, 0x00, 0x00, 0x00, 0x1c, 0xfd, 0xff, 0xff, 0x0f, 0x00, 0x00, 0x00,
  0x61, 0x72, 0x69, 0x74, 0x68, 0x2e, 0x63, 0x6f, 0x6e, 0x73, 0x74, 0x61,
  0x6e, 0x74, 0x37, 0x00, 0x01, 0x00, 0x00, 0x00, 0x10, 0x00, 0x00, 0x00,
  0x6a, 0xfd, 0xff, 0xff, 0x00, 0x00, 0x00, 0x01, 0x10, 0x00, 0x00, 0x00,
  0x10, 0x00, 0x00, 0x00, 0x0b, 0x00, 0x00, 0x00, 0x1c, 0x00, 0x00, 0x00,
  0x54, 0xfd, 0xff, 0xff, 0x0f, 0x00, 0x00, 0x00, 0x61, 0x72, 0x69, 0x74,
  0x68, 0x2e, 0x63, 0x6f, 0x6e, 0x73, 0x74, 0x61, 0x6e, 0x74, 0x36, 0x00,
  0x01, 0x00, 0x00, 0x00, 0x10, 0x00, 0x00, 0x00, 0xa2, 0xfd, 0xff, 0xff,
  0x00, 0x00, 0x00, 0x01, 0x10, 0x00, 0x00, 0x00, 0x10, 0x00, 0x00, 0x00,
  0x0a, 0x00, 0x00, 0x00, 0x1c, 0x00, 0x00, 0x00, 0x8c, 0xfd, 0xff, 0xff,
  0x0f, 0x00, 0x00, 0x00, 0x61, 0x72, 0x69, 0x74, 0x68, 0x2e, 0x63, 0x6f,
  0x6e, 0x73, 0x74, 0x61, 0x6e, 0x74, 0x35, 0x00, 0x01, 0x00, 0x00, 0x00,
  0x10, 0x00, 0x00, 0x00, 0xda, 0xfd, 0xff, 0xff, 0x00, 0x00, 0x00, 0x01,
  0x10, 0x00, 0x00, 0x00, 0x10, 0x00, 0x00, 0x00, 0x09, 0x00, 0x00, 0x00,
  0x1c, 0x00, 0x00, 0x00, 0xc4, 0xfd, 0xff, 0xff, 0x0f, 0x00, 0x00, 0x00,
  0x61, 0x72, 0x69, 0x74, 0x68, 0x2e, 0x63, 0x6f, 0x6e, 0x73, 0x74, 0x61,
  0x6e, 0x74, 0x34, 0x00, 0x01, 0x00, 0x00, 0x00, 0x10, 0x00, 0x00, 0x00,
  0x12, 0xfe, 0xff, 0xff, 0x00, 0x00, 0x00, 0x01, 0x10, 0x00, 0x00, 0x00,
  0x10, 0x00, 0x00, 0x00, 0x08, 0x00, 0x00, 0x00, 0x1c, 0x00, 0x00, 0x00,
  0xfc, 0xfd, 0xff, 0xff, 0x0f, 0x00, 0x00, 0x00, 0x61, 0x72, 0x69, 0x74,
  0x68, 0x2e, 0x63, 0x6f, 0x6e, 0x73, 0x74, 0x61, 0x6e, 0x74, 0x33, 0x00,
  0x02, 0x00, 0x00, 0x00, 0x10, 0x00, 0x00, 0x00, 0x10, 0x00, 0x00, 0x00,
  0x4e, 0xfe, 0xff, 0xff, 0x00, 0x00, 0x00, 0x01, 0x10, 0x00, 0x00, 0x00,
  0x10, 0x00, 0x00, 0x00, 0x07, 0x00, 0x00, 0x00, 0x1c, 0x00, 0x00, 0x00,
  0x38, 0xfe, 0xff, 0xff, 0x0f, 0x00, 0x00, 0x00, 0x61, 0x72, 0x69, 0x74,
  0x68, 0x2e, 0x63, 0x6f, 0x6e, 0x73, 0x74, 0x61, 0x6e, 0x74, 0x32, 0x00,
  0x02, 0x00, 0x00, 0x00, 0x10, 0x00, 0x00, 0x00, 0x10, 0x00, 0x00, 0x00,
  0x8a, 0xfe, 0xff, 0xff, 0x00, 0x00, 0x00, 0x01, 0x10, 0x00, 0x00, 0x00,
  0x10, 0x00, 0x00, 0x00, 0x06, 0x00, 0x00, 0x00, 0x1c, 0x00, 0x00, 0x00,
  0x74, 0xfe, 0xff, 0xff, 0x0f, 0x00, 0x00, 0x00, 0x61, 0x72, 0x69, 0x74,
  0x68, 0x2e, 0x63, 0x6f, 0x6e, 0x73, 0x74, 0x61, 0x6e, 0x74, 0x31, 0x00,
  0x02, 0x00, 0x00, 0x00, 0x10, 0x00, 0x00, 0x00, 0x10, 0x00, 0x00, 0x00,
  0xc6, 0xfe, 0xff, 0xff, 0x00, 0x00, 0x00, 0x01, 0x10, 0x00, 0x00, 0x00,
  0x10, 0x00, 0x00, 0x00, 0x05, 0x00, 0x00, 0x00, 0x1c, 0x00, 0x00, 0x00,
  0xb0, 0xfe, 0xff, 0xff, 0x0e, 0x00, 0x00, 0x00, 0x61, 0x72, 0x69, 0x74,
  0x68, 0x2e, 0x63, 0x6f, 0x6e, 0x73, 0x74, 0x61, 0x6e, 0x74, 0x00, 0x00,
  0x02, 0x00, 0x00, 0x00, 0x10, 0x00, 0x00, 0x00, 0x10, 0x00, 0x00, 0x00,
  0x02, 0xff, 0xff, 0xff, 0x00, 0x00, 0x00, 0x01, 0x10, 0x00, 0x00, 0x00,
  0x10, 0x00, 0x00, 0x00, 0x04, 0x00, 0x00, 0x00, 0x34, 0x00, 0x00, 0x00,
  0xec, 0xfe, 0xff, 0xff, 0x27, 0x00, 0x00, 0x00, 0x73, 0x65, 0x71, 0x75,
  0x65, 0x6e, 0x74, 0x69, 0x61, 0x6c, 0x2f, 0x64, 0x65, 0x6e, 0x73, 0x65,
  0x2f, 0x42, 0x69, 0x61, 0x73, 0x41, 0x64, 0x64, 0x2f, 0x52, 0x65, 0x61,
  0x64, 0x56, 0x61, 0x72, 0x69, 0x61, 0x62, 0x6c, 0x65, 0x4f, 0x70, 0x00,
  0x01, 0x00, 0x00, 0x00, 0x10, 0x00, 0x00, 0x00, 0x52, 0xff, 0xff, 0xff,
  0x00, 0x00, 0x00, 0x01, 0x10, 0x00, 0x00, 0x00, 0x10, 0x00, 0x00, 0x00,
  0x03, 0x00, 0x00, 0x00, 0x38, 0x00, 0x00, 0x00, 0x3c, 0xff, 0xff, 0xff,
  0x29, 0x00, 0x00, 0x00, 0x73, 0x65, 0x71, 0x75, 0x65, 0x6e, 0x74, 0x69,
  0x61, 0x6c, 0x2f, 0x64, 0x65, 0x6e, 0x73, 0x65, 0x5f, 0x31, 0x2f, 0x42,
  0x69, 0x61, 0x73, 0x41, 0x64, 0x64, 0x2f, 0x52, 0x65, 0x61, 0x64, 0x56,
  0x61, 0x72, 0x69, 0x61, 0x62, 0x6c, 0x65, 0x4f, 0x70, 0x00, 0x00, 0x00,
  0x01, 0x00, 0x00, 0x00, 0x02, 0x00, 0x00, 0x00, 0x00, 0x00, 0x16, 0x00,
  0x14, 0x00, 0x10, 0x00, 0x00, 0x00, 0x00, 0x00, 0x0c, 0x00, 0x08, 0x00,
  0x07, 0x00, 0x00, 0x00, 0x00, 0x00, 0x06, 0x00, 0x16, 0x00, 0x00, 0x00,
  0x00, 0x00, 0x01, 0x01, 0x0c, 0x00, 0x00, 0x00, 0x0c, 0x00, 0x00, 0x00,
  0x24, 0x00, 0x00, 0x00, 0xa4, 0xff, 0xff, 0xff, 0x15, 0x00, 0x00, 0x00,
  0x73, 0x65, 0x71, 0x75, 0x65, 0x6e, 0x74, 0x69, 0x61, 0x6c, 0x2f, 0x6c,
  0x73, 0x74, 0x6d, 0x2f, 0x7a, 0x65, 0x72, 0x6f, 0x73, 0x00, 0x00, 0x00,
  0x02, 0x00, 0x00, 0x00, 0x01, 0x00, 0x00, 0x00, 0x10, 0x00, 0x00, 0x00,
  0x00, 0x00, 0x16, 0x00, 0x18, 0x00, 0x14, 0x00, 0x00, 0x00, 0x10, 0x00,
  0x0c, 0x00, 0x08, 0x00, 0x00, 0x00, 0x00, 0x00, 0x00, 0x00, 0x07, 0x00,
  0x16, 0x00, 0x00, 0x00, 0x00, 0x00, 0x00, 0x01, 0x14, 0x00, 0x00, 0x00,
  0x14, 0x00, 0x00, 0x00, 0x01, 0x00, 0x00, 0x00, 0x2c, 0x00, 0x00, 0x00,
  0x04, 0x00, 0x04, 0x00, 0x04, 0x00, 0x00, 0x00, 0x19, 0x00, 0x00, 0x00,
  0x73, 0x65, 0x72, 0x76, 0x69, 0x6e, 0x67, 0x5f, 0x64, 0x65, 0x66, 0x61,
  0x75, 0x6c, 0x74, 0x5f, 0x69, 0x6e, 0x70, 0x75, 0x74, 0x5f, 0x31, 0x3a,
  0x30, 0x00, 0x00, 0x00, 0x03, 0x00, 0x00, 0x00, 0x01, 0x00, 0x00, 0x00,
  0x1e, 0x00, 0x00, 0x00, 0x05, 0x00, 0x00, 0x00, 0x03, 0x00, 0x00, 0x00,
  0x40, 0x00, 0x00, 0x00, 0x20, 0x00, 0x00, 0x00, 0x04, 0x00, 0x00, 0x00,
  0xd8, 0xff, 0xff, 0xff, 0x19, 0x00, 0x00, 0x00, 0x00, 0x00, 0x00, 0x19,
  0x0c, 0x00, 0x10, 0x00, 0x0f, 0x00, 0x00, 0x00, 0x08, 0x00, 0x04, 0x00,
  0x0c, 0x00, 0x00, 0x00, 0x09, 0x00, 0x00, 0x00, 0x05, 0x00, 0x00, 0x00,
  0x00, 0x00, 0x00, 0x09, 0x0c, 0x00, 0x0c, 0x00, 0x0b, 0x00, 0x00, 0x00,
  0x00, 0x00, 0x04, 0x00, 0x0c, 0x00, 0x00, 0x00, 0x2c, 0x00, 0x00, 0x00,
  0x00, 0x00, 0x00, 0x2c
};
unsigned int model_tflite_len = 10084;
