unsigned char model_tflite[] = {
  0x1c, 0x00, 0x00, 0x00, 0x54, 0x46, 0x4c, 0x33, 0x14, 0x00, 0x20, 0x00,
  0x1c, 0x00, 0x18, 0x00, 0x14, 0x00, 0x10, 0x00, 0x0c, 0x00, 0x00, 0x00,
  0x08, 0x00, 0x04, 0x00, 0x14, 0x00, 0x00, 0x00, 0x1c, 0x00, 0x00, 0x00,
  0x8c, 0x00, 0x00, 0x00, 0xe4, 0x00, 0x00, 0x00, 0x38, 0x1c, 0x00, 0x00,
  0x48, 0x1c, 0x00, 0x00, 0x3c, 0x25, 0x00, 0x00, 0x03, 0x00, 0x00, 0x00,
  0x01, 0x00, 0x00, 0x00, 0x10, 0x00, 0x00, 0x00, 0x00, 0x00, 0x0a, 0x00,
  0x10, 0x00, 0x0c, 0x00, 0x08, 0x00, 0x04, 0x00, 0x0a, 0x00, 0x00, 0x00,
  0x0c, 0x00, 0x00, 0x00, 0x1c, 0x00, 0x00, 0x00, 0x38, 0x00, 0x00, 0x00,
  0x0f, 0x00, 0x00, 0x00, 0x73, 0x65, 0x72, 0x76, 0x69, 0x6e, 0x67, 0x5f,
  0x64, 0x65, 0x66, 0x61, 0x75, 0x6c, 0x74, 0x00, 0x01, 0x00, 0x00, 0x00,
  0x04, 0x00, 0x00, 0x00, 0x9c, 0xff, 0xff, 0xff, 0x16, 0x00, 0x00, 0x00,
  0x04, 0x00, 0x00, 0x00, 0x07, 0x00, 0x00, 0x00, 0x64, 0x65, 0x6e, 0x73,
  0x65, 0x5f, 0x37, 0x00, 0x01, 0x00, 0x00, 0x00, 0x04, 0x00, 0x00, 0x00,
  0xba, 0xe3, 0xff, 0xff, 0x04, 0x00, 0x00, 0x00, 0x07, 0x00, 0x00, 0x00,
  0x69, 0x6e, 0x70, 0x75, 0x74, 0x5f, 0x34, 0x00, 0x02, 0x00, 0x00, 0x00,
  0x34, 0x00, 0x00, 0x00, 0x04, 0x00, 0x00, 0x00, 0xdc, 0xff, 0xff, 0xff,
  0x19, 0x00, 0x00, 0x00, 0x04, 0x00, 0x00, 0x00, 0x13, 0x00, 0x00, 0x00,
  0x43, 0x4f, 0x4e, 0x56, 0x45, 0x52, 0x53, 0x49, 0x4f, 0x4e, 0x5f, 0x4d,
  0x45, 0x54, 0x41, 0x44, 0x41, 0x54, 0x41, 0x00, 0x08, 0x00, 0x0c, 0x00,
  0x08, 0x00, 0x04, 0x00, 0x08, 0x00, 0x00, 0x00, 0x18, 0x00, 0x00, 0x00,
  0x04, 0x00, 0x00, 0x00, 0x13, 0x00, 0x00, 0x00, 0x6d, 0x69, 0x6e, 0x5f,
  0x72, 0x75, 0x6e, 0x74, 0x69, 0x6d, 0x65, 0x5f, 0x76, 0x65, 0x72, 0x73,
  0x69, 0x6f, 0x6e, 0x00, 0x1a, 0x00, 0x00, 0x00, 0x50, 0x1b, 0x00, 0x00,
  0x48, 0x1b, 0x00, 0x00, 0xf8, 0x1a, 0x00, 0x00, 0xc0, 0x1a, 0x00, 0x00,
  0xa8, 0x1a, 0x00, 0x00, 0x98, 0x16, 0x00, 0x00, 0x88, 0x12, 0x00, 0x00,
  0x78, 0x0e, 0x00, 0x00, 0x68, 0x0a, 0x00, 0x00, 0x18, 0x0a, 0x00, 0x00,
  0xc8, 0x09, 0x00, 0x00, 0x78, 0x09, 0x00, 0x00, 0x28, 0x09, 0x00, 0x00,
  0xd8, 0x07, 0x00, 0x00, 0x88, 0x06, 0x00, 0x00, 0x38, 0x05, 0x00, 0x00,
  0xe8, 0x03, 0x00, 0x00, 0x58, 0x01, 0x00, 0x00, 0xf8, 0x00, 0x00, 0x00,
  0xa8, 0x00, 0x00, 0x00, 0xa0, 0x00, 0x00, 0x00, 0x98, 0x00, 0x00, 0x00,
  0x90, 0x00, 0x00, 0x00, 0x88, 0x00, 0x00, 0x00, 0x68, 0x00, 0x00, 0x00,
  0x04, 0x00, 0x00, 0x00, 0x96, 0xe4, 0xff, 0xff, 0x04, 0x00, 0x00, 0x00,
  0x54, 0x00, 0x00, 0x00, 0x0c, 0x00, 0x00, 0x00, 0x08, 0x00, 0x0e, 0x00,
  0x08, 0x00, 0x04, 0x00, 0x08, 0x00, 0x00, 0x00, 0x10, 0x00, 0x00, 0x00,
  0x24, 0x00, 0x00, 0x00, 0x00, 0x00, 0x06, 0x00, 0x08, 0x00, 0x04, 0x00,
  0x06, 0x00, 0x00, 0x00, 0x04, 0x00, 0x00, 0x00, 0x00, 0x00, 0x00, 0x00,
  0x00, 0x00, 0x0a, 0x00, 0x10, 0x00, 0x0c, 0x00, 0x08, 0x00, 0x04, 0x00,
  0x0a, 0x00, 0x00, 0x00, 0x01, 0x00, 0x00, 0x00, 0x02, 0x00, 0x00, 0x00,
  0x04, 0x00, 0x00, 0x00, 0x06, 0x00, 0x00, 0x00, 0x32, 0x2e, 0x31, 0x31,
  0x2e, 0x30, 0x00, 0x00, 0xf6, 0xe4, 0xff, 0xff, 0x04, 0x00, 0x00, 0x00,
  0x10, 0x00, 0x00, 0x00, 0x32, 0x2e, 0x30, 0x2e, 0x30, 0x00, 0x00, 0x00,
  0x00, 0x00, 0x00, 0x00, 0x00, 0x00, 0x00, 0x00, 0xbc, 0xdc, 0xff, 0xff,
  0xc0, 0xdc, 0xff, 0xff, 0xc4, 0xdc, 0xff, 0xff, 0xc8, 0xdc, 0xff, 0xff,
  0x22, 0xe5, 0xff, 0xff, 0x04, 0x00, 0x00, 0x00, 0x40, 0x00, 0x00, 0x00,
  0x00, 0x00, 0x00, 0x00, 0x00, 0x00, 0x00, 0x00, 0x00, 0x00, 0x00, 0x00,
  0x00, 0x00, 0x00, 0x00, 0x00, 0x00, 0x00, 0x00, 0x00, 0x00, 0x00, 0x00,
  0x00, 0x00, 0x00, 0x00, 0x00, 0x00, 0x00, 0x00, 0x00, 0x00, 0x00, 0x00,
  0x00, 0x00, 0x00, 0x00, 0x00, 0x00, 0x00, 0x00, 0x00, 0x00, 0x00, 0x00,
  0x00, 0x00, 0x00, 0x00, 0x00, 0x00, 0x00, 0x00, 0x00, 0x00, 0x00, 0x00,
  0x00, 0x00, 0x00, 0x00, 0x6e, 0xe5, 0xff, 0xff, 0x04, 0x00, 0x00, 0x00,
  0x50, 0x00, 0x00, 0x00, 0x21, 0xc7, 0x2b, 0xbd, 0xdf, 0x3e, 0xfd, 0x3e,
  0x1f, 0x25, 0x04, 0x3f, 0x4a, 0x45, 0x4f, 0xbf, 0xe2, 0xf5, 0x11, 0xbf,
  0x59, 0x42, 0x17, 0x3f, 0x07, 0xed, 0x3e, 0x3f, 0xe3, 0x5f, 0x21, 0xbf,
  0x45, 0x9f, 0x8f, 0xbf, 0xd6, 0x25, 0xc6, 0x3d, 0x2a, 0x27, 0x60, 0xbf,
  0x98, 0x29, 0x32, 0xbf, 0xf6, 0x24, 0x48, 0xbf, 0x7b, 0x37, 0x71, 0x3f,
  0x00, 0x1e, 0xa0, 0x3d, 0x85, 0xef, 0x16, 0xbf, 0x17, 0xcb, 0xec, 0xbe,
  0xb0, 0x43, 0xbf, 0x3e, 0xfb, 0x0c, 0x1d, 0x3f, 0xf7, 0x2c, 0x6f, 0xbf,
  0xca, 0xe5, 0xff, 0xff, 0x04, 0x00, 0x00, 0x00, 0x80, 0x02, 0x00, 0x00,
  0xf9, 0x51, 0x98, 0xbd, 0x6f, 0x2e, 0xbc, 0x3e, 0xdd, 0x0b, 0x36, 0x3e,
  0x5a, 0x78, 0x79, 0x3e, 0xec, 0xf1, 0x5a, 0xbf, 0x9e, 0x96, 0x60, 0xbe,
  0x95, 0x46, 0x6f, 0xbe, 0x7f, 0xfc, 0x54, 0x3e, 0xcd, 0xcd, 0x16, 0x3f,
  0x01, 0xd7, 0x2e, 0xbe, 0x90, 0x62, 0x86, 0x3e, 0xf5, 0xe2, 0x15, 0xbf,
  0x60, 0xae, 0x3a, 0xbe, 0x3a, 0x5e, 0x64, 0xbf, 0xb7, 0x41, 0x39, 0x3e,
  0xbb, 0x6a, 0x5c, 0xbe, 0x15, 0x10, 0xac, 0xbe, 0x1c, 0x68, 0xfd, 0xbd,
  0x65, 0x84, 0x60, 0xbe, 0xdd, 0xab, 0x46, 0xbe, 0x77, 0x8f, 0x16, 0x3e,
  0xc1, 0x2f, 0x52, 0xbf, 0xe6, 0xad, 0x93, 0xbe, 0x5f, 0x14, 0xae, 0x3e,
  0x73, 0xca, 0x12, 0x3f, 0xb5, 0x35, 0xcf, 0x3d, 0x8f, 0x4b, 0x3e, 0x3f,
  0x52, 0xdd, 0x43, 0x3f, 0x65, 0xae, 0x7b, 0x3d, 0xfa, 0xe8, 0x0c, 0xbe,
  0x91, 0xc7, 0xbe, 0xbb, 0xde, 0xde, 0xd4, 0xbc, 0xe6, 0xfc, 0x62, 0xbe,
  0xeb, 0x02, 0xed, 0x3e, 0xe4, 0xf9, 0xc0, 0x3e, 0x63, 0xa0, 0xfc, 0xbe,
  0x37, 0x32, 0x08, 0xbf, 0xc7, 0xf1, 0x59, 0xbe, 0x4c, 0x9a, 0x92, 0xbe,
  0x5c, 0xde, 0xa6, 0xbe, 0xcc, 0x21, 0x4e, 0xbe, 0xac, 0xbe, 0xa9, 0xbe,
  0x0c, 0x71, 0xc7, 0x3e, 0x06, 0x4c, 0xce, 0xbd, 0x92, 0x8e, 0x1c, 0xbf,
  0x8b, 0x06, 0xb4, 0xbe, 0x54, 0x49, 0xa2, 0x3e, 0xdc, 0x32, 0xca, 0x3e,
  0xef, 0x33, 0xc7, 0x3c, 0x07, 0x42, 0xc1, 0xbe, 0x0f, 0x49, 0xa7, 0xbe,
  0xdc, 0x21, 0x7a, 0xbd, 0xf5, 0xcc, 0xc1, 0x3d, 0x24, 0x3e, 0x95, 0x3a,
  0x98, 0x32, 0x13, 0xbf, 0x51, 0x41, 0x1d, 0xbf, 0x14, 0x9e, 0x06, 0xbf,
  0x27, 0x72, 0x9c, 0xbd, 0x48, 0x88, 0x22, 0xbf, 0x4f, 0xd2, 0xdd, 0xbe,
  0x6f, 0x6a, 0x1a, 0x3f, 0x06, 0x78, 0x29, 0x3f, 0xb1, 0xa4, 0x39, 0xbf,
  0x31, 0x2d, 0x08, 0xbf, 0xdc, 0x12, 0x5a, 0xbe, 0xfd, 0x2e, 0xe3, 0x38,
  0x8f, 0x4b, 0x3c, 0xbf, 0x7e, 0xab, 0x8c, 0xbe, 0xcd, 0x56, 0xfa, 0xbd,
  0xed, 0xec, 0x16, 0xbe, 0xff, 0x4d, 0xe1, 0xbe, 0x10, 0x14, 0x85, 0x3e,
  0xaa, 0x28, 0xa5, 0x3d, 0x9e, 0x13, 0x26, 0xbe, 0x32, 0x96, 0x37, 0xbf,
  0x81, 0x85, 0x48, 0xbd, 0xe5, 0x16, 0x11, 0xbe, 0x7d, 0x90, 0xa7, 0x3e,
  0x0a, 0xdc, 0x82, 0xbd, 0x7e, 0x53, 0x6e, 0xbc, 0x10, 0x94, 0x17, 0xbf,
  0x16, 0xb9, 0xbf, 0x3d, 0x22, 0x8d, 0x02, 0x3f, 0x13, 0x92, 0x8a, 0x3e,
  0xdc, 0xdc, 0xa4, 0xbe, 0xeb, 0xff, 0x0c, 0xbf, 0xd5, 0xb5, 0x1e, 0xbe,
  0xbc, 0x73, 0xc8, 0x3e, 0xde, 0x14, 0x2d, 0x3e, 0xf4, 0x5b, 0xd0, 0x3e,
  0xfa, 0x89, 0xb4, 0x3e, 0x0b, 0x41, 0xf3, 0x3e, 0x71, 0xcf, 0xd7, 0xbc,
  0x39, 0x31, 0x5a, 0x3d, 0x75, 0xb0, 0xf3, 0x3e, 0x84, 0x09, 0x91, 0x3e,
  0x2f, 0x51, 0x81, 0xbd, 0xb6, 0x04, 0xd0, 0x3e, 0xe5, 0x32, 0x33, 0x3f,
  0x31, 0x35, 0x8b, 0x3e, 0x68, 0x6e, 0x34, 0xbf, 0xe0, 0x86, 0x51, 0xbf,
  0xc0, 0x4d, 0x80, 0x3e, 0x0b, 0x6b, 0x05, 0xbc, 0xe9, 0x4d, 0xa1, 0x3e,
  0x21, 0x95, 0x2c, 0xbe, 0x9c, 0x5d, 0x89, 0x3e, 0xa4, 0x44, 0x8e, 0xbe,
  0x7f, 0x44, 0x0e, 0xbf, 0xf9, 0x08, 0x00, 0xbe, 0x7a, 0xb8, 0x2a, 0x3f,
  0x19, 0xe1, 0xd4, 0xbe, 0x08, 0x85, 0xe3, 0xbd, 0xfd, 0x46, 0x13, 0xbf,
  0x69, 0x9a, 0xb5, 0xbe, 0x9d, 0x1d, 0xdc, 0x3c, 0x67, 0x5e, 0x35, 0x3f,
  0x35, 0xf5, 0xb1, 0x3e, 0x11, 0xac, 0x12, 0xbe, 0x5b, 0x4f, 0x0b, 0xbf,
  0x02, 0xc4, 0x49, 0xbf, 0xca, 0xa1, 0x9d, 0x3e, 0x2f, 0xa0, 0xf7, 0xbe,
  0xa9, 0xd2, 0x17, 0xbf, 0x6b, 0x41, 0x0c, 0x3f, 0xbc, 0xf3, 0x31, 0x3f,
  0x2a, 0x91, 0x42, 0xbf, 0x91, 0x97, 0xdb, 0xbe, 0x99, 0xdf, 0x30, 0xbd,
  0xc0, 0xad, 0xaa, 0xbe, 0x15, 0x22, 0x41, 0xbf, 0xf2, 0x2a, 0x15, 0x3d,
  0x94, 0x29, 0x33, 0x3e, 0xbf, 0x6c, 0x95, 0x3e, 0xca, 0x35, 0xf3, 0x3d,
  0x96, 0xe1, 0x12, 0xbf, 0xe1, 0xaa, 0x4b, 0xbf, 0x51, 0x43, 0x85, 0x3e,
  0x65, 0x09, 0xb7, 0xbe, 0xa7, 0x52, 0xc1, 0xbe, 0xeb, 0xe7, 0x39, 0x3f,
  0x79, 0xa7, 0x5e, 0x3f, 0xf4, 0x18, 0x35, 0xbe, 0x55, 0x6f, 0x9e, 0x3e,
  0x44, 0x1b, 0x1f, 0xbe, 0x42, 0xa4, 0xe1, 0x3e, 0x84, 0x09, 0x60, 0x3e,
  0x16, 0x0d, 0xbd, 0xbd, 0x15, 0xda, 0xe6, 0xbe, 0x75, 0xdb, 0x33, 0xbf,
  0x1d, 0x56, 0xa2, 0xbe, 0x90, 0xe4, 0xa3, 0x3c, 0xb6, 0x41, 0xd7, 0x3e,
  0xdf, 0x3a, 0x97, 0x3d, 0xd4, 0x1d, 0x3a, 0x3f, 0x5a, 0x33, 0xba, 0x3e,
  0xf3, 0x5c, 0xbb, 0xbe, 0x75, 0x5d, 0x2e, 0xbf, 0xdc, 0xba, 0xde, 0xbd,
  0x9d, 0x21, 0x8b, 0x3e, 0x56, 0xe8, 0xff, 0xff, 0x04, 0x00, 0x00, 0x00,
  0x40, 0x01, 0x00, 0x00, 0x00, 0x1c, 0x1c, 0x3e, 0x67, 0xde, 0x01, 0x3e,
  0x4f, 0x6e, 0xac, 0x3d, 0xc6, 0xc4, 0x97, 0x3e, 0xf9, 0xc4, 0x66, 0xbd,
  0x4f, 0x5a, 0x83, 0x3c, 0x9a, 0x11, 0xf7, 0xbd, 0x38, 0x3c, 0x97, 0x3e,
  0x33, 0x93, 0x08, 0xbe, 0x8a, 0xdf, 0x86, 0x3e, 0x38, 0x01, 0x96, 0x3c,
  0xc1, 0x6d, 0x36, 0xbc, 0x60, 0x99, 0xba, 0xbe, 0x9a, 0x6d, 0x93, 0x3d,
  0x5c, 0x6f, 0x09, 0xbf, 0x19, 0xad, 0x99, 0x3c, 0x15, 0xac, 0x9b, 0x3e,
  0xbd, 0x2e, 0xb0, 0x3c, 0x3e, 0x7d, 0x40, 0x3d, 0xa0, 0x12, 0xd6, 0xbe,
  0xc7, 0xd5, 0xc5, 0x3a, 0x2e, 0x3c, 0x92, 0xbc, 0xcb, 0x90, 0xb2, 0x3c,
  0xf0, 0xc6, 0xd8, 0xbe, 0x0b, 0x5a, 0xd8, 0xbd, 0x41, 0xf8, 0xee, 0xbb,
  0x06, 0xd8, 0xd7, 0x3b, 0x0b, 0x40, 0x75, 0x3e, 0x32, 0xbc, 0xd5, 0xbe,
  0x6d, 0x3a, 0xb3, 0xbe, 0xb3, 0xaf, 0x34, 0x3e, 0xb8, 0xc1, 0x43, 0x3e,
  0x7f, 0x32, 0x21, 0xbe, 0x87, 0xcf, 0x38, 0x3d, 0x30, 0x81, 0x9d, 0xbe,
  0x1e, 0x4c, 0xdd, 0xbc, 0x36, 0xf4, 0x59, 0x3e, 0xea, 0x31, 0x60, 0xbe,
  0xc6, 0x13, 0x98, 0x3e, 0x15, 0xc2, 0x91, 0xbe, 0x39, 0x4b, 0xd9, 0xbd,
  0x63, 0x65, 0x87, 0xbe, 0x52, 0x61, 0x08, 0x3e, 0x41, 0x8b, 0xcc, 0xbd,
  0x4b, 0xaa, 0x92, 0xbd, 0xe5, 0x41, 0x95, 0x3e, 0x9b, 0xc0, 0x4e, 0x3e,
  0xc0, 0x51, 0x37, 0x3e, 0xb0, 0x5f, 0x34, 0xbd, 0x91, 0xc9, 0x5e, 0xbe,
  0x42, 0x10, 0xf9, 0xbd, 0x2c, 0x8e, 0x3a, 0x3e, 0x49, 0x59, 0xce, 0x3e,
  0xab, 0x9e, 0x55, 0xbe, 0xdf, 0x31, 0xca, 0xbe, 0xae, 0x9a, 0x85, 0x3e,
  0x48, 0xc7, 0x3c, 0xbe, 0x4d, 0x7a, 0xa6, 0x3d, 0x41, 0x6b, 0xb4, 0x3a,
  0xd1, 0x54, 0x5e, 0x3e, 0x17, 0x06, 0xa5, 0x3d, 0xe3, 0x81, 0xa0, 0xbd,
  0x9b, 0x49, 0xd4, 0x3d, 0xe6, 0x1d, 0x98, 0x3b, 0xa2, 0x55, 0x47, 0xbd,
  0xaf, 0x80, 0xf4, 0xbb, 0xf7, 0xf8, 0x60, 0xbe, 0x09, 0x76, 0x95, 0xbe,
  0x43, 0xf5, 0x76, 0x3e, 0xf3, 0x0c, 0x2a, 0x3e, 0x35, 0xd9, 0xfb, 0x3d,
  0x2b, 0x10, 0xd9, 0xbb, 0x66, 0xf3, 0xac, 0x3e, 0xac, 0x73, 0x1a, 0xbe,
  0xca, 0x35, 0x9c, 0x3e, 0xe8, 0xd4, 0xf2, 0x3d, 0xb3, 0x0e, 0x86, 0xbd,
  0x88, 0xc6, 0xa3, 0xbb, 0x9e, 0xaf, 0xda, 0x3d, 0xea, 0xae, 0x9e, 0x3d,
  0xa2, 0xe9, 0xff, 0xff, 0x04, 0x00, 0x00, 0x00, 0x40, 0x01, 0x00, 0x00,
  0x66, 0xbf, 0x29, 0xbe, 0x2a, 0xf3, 0xd3, 0x3d, 0x13, 0x10, 0xed, 0x3d,
  0xf3, 0xc0, 0x70, 0xbd, 0x7c, 0xb7, 0x1b, 0x3e, 0x80, 0xd9, 0x84, 0x39,
  0x87, 0xf1, 0x2d, 0x3e, 0xd8, 0x82, 0x30, 0x3e, 0xa9, 0xfa, 0xdf, 0x3d,
  0x2f, 0x9a, 0x00, 0x3e, 0x32, 0x34, 0xde, 0x3d, 0x67, 0x65, 0xb7, 0x3d,
  0x44, 0xb6, 0x23, 0xbc, 0x4d, 0x21, 0x52, 0x3e, 0x17, 0x8a, 0x85, 0xbc,
  0x72, 0x1f, 0x66, 0xbe, 0x0c, 0x63, 0x84, 0x3e, 0x1c, 0xce, 0x09, 0x3e,
  0xd0, 0x7f, 0x91, 0x3e, 0x08, 0x25, 0x90, 0xbe, 0xe2, 0x7b, 0xa9, 0xbd,
  0x68, 0x15, 0x14, 0xbd, 0x25, 0xe1, 0x99, 0x3d, 0xfa, 0x51, 0x3e, 0x3d,
  0x8b, 0x11, 0x11, 0xbe, 0x51, 0x18, 0xa9, 0xbe, 0xd5, 0x15, 0x2c, 0x3d,
  0x75, 0x5a, 0xe4, 0xbd, 0xc9, 0xd1, 0xee, 0x3d, 0x03, 0x27, 0x9f, 0x3d,
  0xdf, 0x32, 0x12, 0xbe, 0xb4, 0xb0, 0x50, 0xbe, 0x31, 0x1e, 0x4d, 0xbd,
  0x5f, 0xf3, 0xf8, 0x3d, 0x75, 0x5e, 0x7c, 0xbe, 0x76, 0xce, 0xcf, 0xbd,
  0x36, 0x56, 0x24, 0xbe, 0xad, 0xe3, 0x6d, 0x3d, 0x38, 0xf4, 0x73, 0xbd,
  0x44, 0x69, 0x30, 0x3e, 0xea, 0xf3, 0x35, 0xbd, 0xe5, 0x4a, 0x1b, 0x3d,
  0xc0, 0xe6, 0x2a, 0x3e, 0x3e, 0x4c, 0xaf, 0xbd, 0x1f, 0x1b, 0x36, 0xbe,
  0x68, 0xa8, 0x88, 0x3d, 0xee, 0xb8, 0x80, 0xbe, 0x51, 0xf6, 0x7a, 0x3e,
  0xdf, 0x12, 0xa1, 0x3d, 0xf1, 0x6f, 0x80, 0xbd, 0xbd, 0x5c, 0xfc, 0xbd,
  0x11, 0x5b, 0xa3, 0x3d, 0x1d, 0x73, 0x94, 0x3d, 0xc0, 0x4d, 0xb2, 0x3d,
  0xde, 0xf0, 0x89, 0x3e, 0x4c, 0x13, 0x80, 0xbe, 0x7f, 0x0b, 0xaa, 0xbd,
  0x91, 0x53, 0x1c, 0x3d, 0x38, 0x7b, 0x5c, 0xbd, 0x96, 0x1c, 0x5c, 0x3e,
  0x22, 0x3b, 0x9e, 0x3d, 0xa5, 0x99, 0x13, 0xbe, 0xfd, 0x0a, 0x7a, 0xbe,
  0xb1, 0x4e, 0x48, 0x3e, 0x23, 0xb3, 0x46, 0x3e, 0x35, 0x7a, 0xb2, 0x3d,
  0xb5, 0xc4, 0x3b, 0xbe, 0x0d, 0xa9, 0x46, 0xbd, 0x52, 0x27, 0x6d, 0xbe,
  0xa5, 0x59, 0xc8, 0xbe, 0x39, 0xf0, 0x20, 0x3e, 0x1f, 0xac, 0xa0, 0x3c,
  0x82, 0x49, 0xc0, 0x3d, 0x9b, 0xdd, 0x0e, 0xbe, 0x90, 0x04, 0x80, 0xbe,
  0xc5, 0x9c, 0x39, 0x3e, 0x8d, 0xa8, 0x30, 0x3e, 0xeb, 0x05, 0x07, 0x3e,
  0xd3, 0xde, 0x09, 0xbe, 0x55, 0xa3, 0xda, 0x3c, 0xee, 0xea, 0xff, 0xff,
  0x04, 0x00, 0x00, 0x00, 0x40, 0x01, 0x00, 0x00, 0x20, 0x62, 0x81, 0xbe,
  0xe7, 0xf7, 0x3f, 0x3d, 0x10, 0x96, 0xff, 0xbd, 0xc2, 0xe7, 0x8a, 0xbe,
  0x2c, 0x41, 0x10, 0x3e, 0xaf, 0x76, 0x89, 0x3e, 0x77, 0xc0, 0x58, 0xbd,
  0xf1, 0xed, 0x23, 0xbe, 0xa2, 0x9b, 0x86, 0x3e, 0x8a, 0x1f, 0xda, 0xbd,
  0x61, 0xad, 0x09, 0x3e, 0x8e, 0x29, 0x65, 0x3e, 0x0d, 0x6c, 0xcb, 0x3e,
  0x70, 0x21, 0x11, 0xbe, 0x82, 0x30, 0xed, 0xbd, 0x7d, 0x71, 0x2c, 0xbe,
  0xce, 0x50, 0xe7, 0x3d, 0x1b, 0x5f, 0x56, 0x3c, 0xf3, 0x81, 0x48, 0x3d,
  0x90, 0x90, 0x82, 0xbe, 0xd1, 0xea, 0x2b, 0x3e, 0x0c, 0x45, 0x13, 0x3e,
  0x99, 0xbf, 0x8a, 0xbd, 0xa3, 0x31, 0x52, 0x3e, 0x67, 0x66, 0x3c, 0xbe,
  0xc5, 0x84, 0xd9, 0x3d, 0x53, 0xdd, 0xfb, 0xba, 0xeb, 0x96, 0x4a, 0xbd,
  0xda, 0x0d, 0x3b, 0x3e, 0xca, 0xc8, 0x2e, 0xbe, 0x58, 0x3a, 0x71, 0xbe,
  0x5c, 0x6a, 0xed, 0xbd, 0xb4, 0xd8, 0x32, 0x3b, 0x7d, 0xb8, 0x7c, 0xbd,
  0x5c, 0x5e, 0xc2, 0x3d, 0x3e, 0x03, 0x29, 0xbd, 0xc0, 0x6d, 0x88, 0xbd,
  0xd9, 0xae, 0x38, 0x3d, 0xdb, 0x82, 0x40, 0xbe, 0x59, 0xf1, 0x3b, 0xbe,
  0x8b, 0x3c, 0x48, 0x3d, 0x27, 0x99, 0x5d, 0x3e, 0x58, 0x6a, 0x38, 0xbe,
  0xf8, 0x10, 0x3f, 0xbd, 0x4f, 0x20, 0x97, 0xbd, 0x36, 0x27, 0xc9, 0x3c,
  0x83, 0x9e, 0xbb, 0xbd, 0x94, 0x60, 0x2f, 0x3e, 0x29, 0x0c, 0x65, 0xbe,
  0x03, 0x04, 0x8f, 0x3d, 0x12, 0xb1, 0xa5, 0xbd, 0x58, 0x2d, 0x93, 0x3d,
  0xb0, 0xb1, 0xdc, 0xbe, 0x64, 0x92, 0xda, 0xbd, 0x9f, 0x6b, 0x30, 0x3e,
  0x6f, 0xbe, 0xc8, 0xbb, 0xa0, 0xd8, 0x1c, 0x3e, 0xa1, 0xc6, 0x8d, 0x3e,
  0x1f, 0xd7, 0xeb, 0xbd, 0x44, 0xd3, 0x60, 0xbe, 0xfd, 0x82, 0x88, 0x3e,
  0x76, 0xa6, 0x90, 0xbe, 0x37, 0x98, 0x97, 0x3e, 0x66, 0x34, 0x2d, 0x3e,
  0x33, 0xe5, 0x26, 0x3d, 0xaf, 0x5d, 0xed, 0x38, 0x3f, 0x15, 0x86, 0xbc,
  0x97, 0x71, 0x90, 0xbe, 0x1c, 0x0b, 0x11, 0x3e, 0x8e, 0x12, 0x90, 0xbe,
  0xed, 0x56, 0x87, 0xbd, 0x01, 0xff, 0x6c, 0xbe, 0xbf, 0x57, 0xfa, 0xbd,
  0x8b, 0x87, 0xe1, 0x3e, 0x97, 0x81, 0xbb, 0x3e, 0xc1, 0x9c, 0xde, 0x3c,
  0x14, 0x9a, 0xa2, 0x3d, 0x05, 0xe7, 0x17, 0xbe, 0x52, 0xf9, 0x97, 0x3e,
  0x01, 0x1a, 0xa0, 0x3e, 0x3a, 0xec, 0xff, 0xff, 0x04, 0x00, 0x00, 0x00,
  0x40, 0x01, 0x00, 0x00, 0x68, 0x77, 0xa9, 0x3e, 0x7a, 0x7f, 0x83, 0xbd,
  0xec, 0xf0, 0xea, 0xbc, 0xf5, 0xcd, 0x86, 0xbc, 0xa5, 0xfa, 0x7d, 0xbe,
  0x8a, 0xca, 0xf2, 0x3d, 0x3f, 0xc1, 0xc4, 0xbc, 0x48, 0xe9, 0x1d, 0x3d,
  0xbd, 0x2c, 0xbb, 0xbe, 0x30, 0xd6, 0x74, 0xbe, 0xc1, 0x9b, 0x31, 0x3e,
  0x98, 0xb9, 0x8c, 0xbe, 0xe2, 0x3d, 0xb0, 0xbc, 0xc5, 0x1a, 0x1e, 0x3c,
  0x85, 0x96, 0x10, 0xbc, 0xe9, 0xee, 0x8f, 0xbd, 0x7d, 0xac, 0x7e, 0x3e,
  0x4c, 0x9e, 0xac, 0xbe, 0xdd, 0x80, 0x89, 0x3d, 0xcd, 0x56, 0x26, 0xbe,
  0x36, 0xfb, 0x72, 0x3e, 0x90, 0xc3, 0x99, 0xbe, 0x45, 0x76, 0x0e, 0x3d,
  0xf2, 0xfe, 0x0a, 0x3e, 0xc6, 0xee, 0xe9, 0x3d, 0x4c, 0x98, 0xab, 0xbe,
  0xc6, 0xd4, 0x7f, 0xbd, 0x6f, 0x07, 0xac, 0xbe, 0xcc, 0x80, 0xfd, 0x3d,
  0xde, 0x9a, 0xd1, 0xbe, 0x5d, 0x83, 0x81, 0x3e, 0x28, 0xf1, 0x74, 0x3d,
  0x7e, 0x7c, 0x3a, 0x3d, 0x5c, 0x78, 0x8a, 0xbe, 0xe7, 0x91, 0x80, 0xbd,
  0xaf, 0x6d, 0x98, 0xbe, 0xbe, 0xe6, 0xda, 0x3d, 0x4e, 0x73, 0x97, 0xbd,
  0x3f, 0xb1, 0xaa, 0x3e, 0xde, 0x56, 0xc5, 0xbd, 0x4f, 0x81, 0xc9, 0x3c,
  0x8a, 0xd3, 0x28, 0xbc, 0x30, 0xeb, 0xe3, 0x3e, 0xbb, 0x8c, 0x6b, 0x3e,
  0x27, 0xca, 0x8b, 0xbd, 0xd2, 0xd8, 0x5e, 0xbe, 0x9b, 0x7b, 0x4a, 0xbe,
  0xc8, 0xe4, 0x14, 0x3d, 0x88, 0x81, 0x65, 0x3d, 0xfd, 0x8f, 0x83, 0xbe,
  0x73, 0x62, 0x4a, 0x3e, 0x9e, 0x6e, 0x5b, 0x3e, 0xea, 0x0a, 0x22, 0xbe,
  0x83, 0x7b, 0x90, 0x3e, 0xef, 0xc4, 0x11, 0xbe, 0xf7, 0x4f, 0x05, 0x3d,
  0x60, 0xf4, 0x8c, 0xbd, 0x29, 0xa8, 0x7b, 0xbe, 0x53, 0xee, 0xd1, 0x3e,
  0x11, 0x6e, 0x80, 0xbe, 0x3d, 0x3c, 0x7d, 0xbd, 0x46, 0x89, 0x35, 0x3d,
  0x05, 0x57, 0x93, 0xbe, 0x01, 0x9e, 0x1f, 0x3e, 0x7f, 0x6d, 0x37, 0x3d,
  0xc7, 0x09, 0x6e, 0xbd, 0x88, 0xf0, 0x16, 0xbe, 0x57, 0xdd, 0x72, 0xbe,
  0x95, 0x10, 0x5e, 0xbd, 0xeb, 0x05, 0x65, 0xbe, 0x0d, 0xcc, 0x80, 0x3e,
  0x56, 0x2d, 0x29, 0x3e, 0x8e, 0xef, 0xbb, 0x3d, 0xef, 0x6c, 0xd6, 0x3d,
  0x11, 0x6a, 0x53, 0xbd, 0xa4, 0x5f, 0x62, 0x3e, 0xe8, 0xe5, 0xcf, 0xbd,
  0x90, 0x77, 0xbe, 0x3d, 0x65, 0xf7, 0x8c, 0xbe, 0x52, 0x0c, 0xa2, 0xbc,
  0x86, 0xed, 0xff, 0xff, 0x04, 0x00, 0x00, 0x00, 0x40, 0x00, 0x00, 0x00,
  0x4d, 0xd6, 0xdc, 0x3c, 0xd2, 0xab, 0xdc, 0xbc, 0x03, 0x07, 0xcc, 0x3d,
  0x61, 0x3b, 0x5e, 0x3c, 0x41, 0x9d, 0x21, 0x3d, 0x2d, 0x4a, 0x64, 0xbd,
  0x57, 0xa0, 0x44, 0x3d, 0xa5, 0xc3, 0x2d, 0x3e, 0x8c, 0x0b, 0xab, 0x3d,
  0x65, 0xb2, 0xcf, 0xbc, 0xde, 0x51, 0x8d, 0xbc, 0x51, 0xe3, 0x1d, 0x3d,
  0xb9, 0x10, 0xfc, 0x3c, 0x01, 0x5b, 0xa2, 0x3d, 0x8f, 0x93, 0x83, 0xbe,
  0xdb, 0x91, 0x19, 0xbd, 0xd2, 0xed, 0xff, 0xff, 0x04, 0x00, 0x00, 0x00,
  0x40, 0x00, 0x00, 0x00, 0x74, 0xbd, 0x80, 0x3f, 0x5d, 0x5d, 0x6c, 0x3f,
  0x7e, 0x29, 0x80, 0x3f, 0x5d, 0x19, 0x83, 0x3f, 0x4b, 0x9d, 0x96, 0x3f,
  0x50, 0x8b, 0x73, 0x3f, 0x2f, 0xfb, 0x78, 0x3f, 0xcd, 0x64, 0x87, 0x3f,
  0x16, 0x08, 0x85, 0x3f, 0x5a, 0x2c, 0x6d, 0x3f, 0xc5, 0xf1, 0x95, 0x3f,
  0x5b, 0xb8, 0x6a, 0x3f, 0x18, 0x25, 0x86, 0x3f, 0xe0, 0x75, 0x8e, 0x3f,
  0x94, 0x05, 0x89, 0x3f, 0xb3, 0x10, 0x64, 0x3f, 0x1e, 0xee, 0xff, 0xff,
  0x04, 0x00, 0x00, 0x00, 0x40, 0x00, 0x00, 0x00, 0x06, 0xab, 0x95, 0x3c,
  0x20, 0x52, 0x80, 0xbb, 0x23, 0x74, 0xb8, 0x3b, 0x0e, 0x0f, 0x5d, 0xbd,
  0x24, 0x7e, 0x2b, 0xbc, 0x75, 0x9a, 0x7c, 0xbd, 0x22, 0x6a, 0x15, 0xbd,
  0xc4, 0x66, 0x4f, 0xbd, 0x4e, 0x9d, 0xca, 0xbd, 0x77, 0x75, 0x4c, 0x3c,
  0xdb, 0xd8, 0x88, 0xbd, 0xcf, 0x6c, 0xd2, 0xbc, 0xc0, 0x83, 0x43, 0xbd,
  0xf4, 0x13, 0xb1, 0xbd, 0x56, 0x76, 0xd5, 0x3c, 0xea, 0xe0, 0x9e, 0xbd,
  0x6a, 0xee, 0xff, 0xff, 0x04, 0x00, 0x00, 0x00, 0x40, 0x00, 0x00, 0x00,
  0x7a, 0xcf, 0xd4, 0x3b, 0x30, 0x89, 0xbe, 0x3d, 0x78, 0xad, 0x52, 0x3d,
  0x55, 0x0b, 0x22, 0xbd, 0x70, 0xd0, 0xa5, 0x3d, 0x37, 0x0a, 0x32, 0x3e,
  0x06, 0x5a, 0xe9, 0x3d, 0x7c, 0xda, 0x82, 0x3d, 0xe9, 0xd8, 0x41, 0x3e,
  0x3f, 0x1e, 0x62, 0xbc, 0x4f, 0x40, 0x55, 0x3e, 0x9c, 0x3d, 0x36, 0xbe,
  0x74, 0xed, 0xf5, 0x3d, 0xfb, 0xef, 0xa5, 0x3d, 0x31, 0x93, 0x8f, 0x3d,
  0xa0, 0x1f, 0xcd, 0xbd, 0xb6, 0xee, 0xff, 0xff, 0x04, 0x00, 0x00, 0x00,
  0x00, 0x04, 0x00, 0x00, 0x2d, 0x47, 0xe3, 0x3b, 0x89, 0xac, 0x39, 0x3e,
  0x45, 0xa6, 0x40, 0x3e, 0xdd, 0x1f, 0x8e, 0xbe, 0xa3, 0xb3, 0x49, 0xbd,
  0xae, 0x6e, 0xb3, 0x3d, 0xc1, 0xb9, 0x00, 0xbe, 0x9b, 0x03, 0xd3, 0xbc,
  0x92, 0xb5, 0xaa, 0xbd, 0x1c, 0xdd, 0x89, 0xbd, 0xe9, 0xaa, 0x73, 0xbd,
  0x74, 0x1e, 0x8a, 0xbe, 0x59, 0xd1, 0xb2, 0x3e, 0x34, 0xb1, 0x38, 0xbd,
  0x6a, 0x61, 0xb8, 0x3b, 0xfa, 0x26, 0xbf, 0x3c, 0xcd, 0x0a, 0xf4, 0x3d,
  0x86, 0xae, 0xdf, 0xbd, 0xd5, 0xa5, 0xa0, 0x3e, 0x6a, 0xee, 0x8c, 0x3e,
  0x27, 0x5b, 0xf1, 0xbc, 0x34, 0x69, 0x44, 0xbe, 0xe2, 0x1d, 0x5d, 0x3b,
  0x02, 0x20, 0x14, 0xbd, 0x56, 0x25, 0x68, 0x3d, 0xf0, 0x07, 0xec, 0x3d,
  0x00, 0xb1, 0x19, 0x3e, 0x1f, 0x3b, 0x76, 0xbc, 0xdf, 0x2c, 0xc4, 0xbd,
  0x64, 0x02, 0xf1, 0x3d, 0x7d, 0xd1, 0x50, 0x3c, 0x6b, 0xa1, 0x87, 0xbd,
  0x4a, 0xc6, 0xa3, 0x3d, 0x29, 0x27, 0x2c, 0xbe, 0x29, 0x6d, 0xd0, 0xbd,
  0x27, 0x51, 0x41, 0xbe, 0x3a, 0x0a, 0x50, 0xbe, 0x8f, 0x07, 0x2f, 0x3c,
  0x67, 0x90, 0x12, 0xbe, 0x6e, 0x8a, 0xbc, 0xbe, 0x4f, 0xb2, 0x66, 0xbe,
  0x43, 0x82, 0xd3, 0x3c, 0x48, 0xd4, 0x25, 0x3d, 0x07, 0x30, 0xdc, 0xbd,
  0x98, 0x86, 0xbd, 0x3d, 0x28, 0xaf, 0x65, 0x3e, 0x08, 0x6a, 0xd8, 0xbe,
  0x26, 0x17, 0xb0, 0x3e, 0x53, 0x2c, 0xe1, 0xbd, 0xd3, 0x78, 0x97, 0x3e,
  0xc3, 0x1b, 0x63, 0x3e, 0x91, 0x02, 0xbf, 0x3d, 0x4c, 0xd3, 0x59, 0xbd,
  0x1e, 0xd3, 0x83, 0x3e, 0xd2, 0xe2, 0x43, 0xbc, 0x4b, 0xc8, 0xbc, 0xbe,
  0xec, 0x27, 0xbb, 0x3b, 0xb3, 0x2b, 0x11, 0xbe, 0xff, 0xc0, 0x1f, 0x3e,
  0x08, 0xbc, 0x7f, 0x3d, 0xaa, 0x1f, 0xa4, 0xbd, 0x99, 0xfb, 0x14, 0x3e,
  0x70, 0xfe, 0x17, 0xbe, 0xe8, 0x50, 0x96, 0xbd, 0x35, 0xe6, 0x85, 0xbe,
  0x2b, 0x7a, 0x4f, 0xbd, 0x4e, 0x55, 0x2b, 0x3e, 0xff, 0x7c, 0x08, 0xbe,
  0x29, 0x44, 0xa1, 0x3d, 0x78, 0x4a, 0xcd, 0xbc, 0x73, 0x0a, 0xa0, 0xbc,
  0x92, 0xfe, 0xa6, 0xbd, 0x09, 0xcb, 0x72, 0x3e, 0xbe, 0x35, 0x85, 0x3d,
  0x98, 0xce, 0xe4, 0x3d, 0xb4, 0xc7, 0x7c, 0x3e, 0x3e, 0x96, 0x03, 0x3c,
  0x50, 0x6a, 0x45, 0xbe, 0xa6, 0xe2, 0xa9, 0xbe, 0x5e, 0x42, 0xbf, 0x3e,
  0xdc, 0x5b, 0xfd, 0xbd, 0xc2, 0x4a, 0x7f, 0xbd, 0xa8, 0x68, 0xd2, 0xbd,
  0x51, 0x9a, 0xe5, 0x3d, 0xcc, 0x5f, 0xe9, 0xbd, 0x08, 0x79, 0x8e, 0x3e,
  0xb9, 0xba, 0x53, 0x3e, 0x76, 0xc3, 0xbd, 0xbd, 0x21, 0x4f, 0x14, 0x3e,
  0x9c, 0xa1, 0x8d, 0xbd, 0x4a, 0xd0, 0x26, 0xbd, 0xd7, 0xed, 0xeb, 0x3d,
  0x11, 0xdb, 0xe3, 0xbd, 0x57, 0x69, 0x10, 0x3e, 0x41, 0x6c, 0xbb, 0xbb,
  0xee, 0xb0, 0x2f, 0xbd, 0x94, 0x3b, 0x9f, 0xbc, 0x64, 0x5a, 0x8f, 0xbb,
  0xd8, 0xc0, 0x40, 0xbe, 0xc1, 0xc2, 0x6a, 0x3e, 0x8a, 0x8a, 0xf9, 0x3d,
  0xa4, 0xcf, 0x26, 0x3d, 0x98, 0x25, 0x30, 0xbe, 0x0e, 0x93, 0x2e, 0xbe,
  0xd0, 0x1c, 0xc2, 0xbd, 0x59, 0x6d, 0x27, 0x3e, 0x84, 0x25, 0x89, 0xbc,
  0xa6, 0xdb, 0xf3, 0xbc, 0x70, 0xa6, 0x94, 0x3e, 0xe8, 0x42, 0xe7, 0x3c,
  0xa6, 0xeb, 0x75, 0xbd, 0x7b, 0xfe, 0xdf, 0x3c, 0x8c, 0x1e, 0xaa, 0xbe,
  0xe6, 0x7e, 0x46, 0xbe, 0x29, 0xdc, 0xa8, 0x3e, 0x65, 0xa4, 0x94, 0xbd,
  0xf8, 0x35, 0x37, 0xbe, 0x56, 0x10, 0x0f, 0xbe, 0xda, 0xbd, 0x9d, 0xbe,
  0x4c, 0x89, 0x1e, 0x3e, 0x9d, 0x0d, 0x3c, 0xbe, 0xd2, 0x80, 0xa1, 0xbe,
  0xb7, 0xbd, 0xcb, 0xbd, 0x93, 0x2a, 0x42, 0xbe, 0x46, 0x15, 0x67, 0xbe,
  0x17, 0x6d, 0xc7, 0xbe, 0x12, 0x2e, 0x2b, 0x3e, 0xda, 0xe3, 0xe4, 0x3d,
  0xec, 0xd2, 0xc7, 0x3e, 0x54, 0xe8, 0xfa, 0x3d, 0x6c, 0xad, 0x44, 0x3d,
  0xa5, 0x05, 0x5b, 0x3d, 0xb9, 0x0c, 0x5a, 0xbd, 0x61, 0x01, 0xa6, 0xbd,
  0xd2, 0x1f, 0x51, 0xbd, 0x93, 0x3f, 0x34, 0xbe, 0x98, 0x67, 0xe7, 0xbd,
  0x91, 0x75, 0x80, 0xbc, 0x5c, 0xfd, 0xed, 0xbd, 0x9a, 0x5d, 0x3e, 0xbe,
  0xc6, 0x19, 0x8e, 0x3c, 0x07, 0xe8, 0xfb, 0xbd, 0xa2, 0x7b, 0x8d, 0xbe,
  0x39, 0xef, 0x6a, 0xbe, 0xa7, 0x0e, 0x3e, 0xbe, 0x3e, 0x70, 0x2b, 0xbd,
  0xc6, 0x23, 0x10, 0x3d, 0xca, 0x90, 0x60, 0x3e, 0x98, 0xe4, 0xfe, 0x3a,
  0x1f, 0xf6, 0x69, 0x3b, 0x1f, 0x32, 0xaa, 0xbd, 0x72, 0xb8, 0xce, 0x3d,
  0x5c, 0x13, 0x6f, 0x3d, 0xdc, 0xea, 0xbb, 0x3d, 0xb1, 0x8c, 0x2f, 0xbe,
  0xe2, 0xea, 0x97, 0x3e, 0x4e, 0xd0, 0x8f, 0x3c, 0x8a, 0x1a, 0x4c, 0x3c,
  0x48, 0x1f, 0x5a, 0xbc, 0x4d, 0x22, 0xca, 0x3d, 0xb3, 0x8f, 0xdc, 0xbd,
  0x25, 0x6c, 0x1b, 0x3e, 0x19, 0x32, 0x17, 0x3e, 0xb5, 0x49, 0x14, 0x3e,
  0x2c, 0xaa, 0xf5, 0x3d, 0x3f, 0x13, 0x01, 0xbe, 0xd3, 0x5f, 0xb9, 0x3b,
  0x57, 0x8b, 0x06, 0x3e, 0x7d, 0x6c, 0x23, 0xbb, 0x4d, 0x9f, 0x88, 0x3e,
  0xc5, 0x84, 0xc0, 0xbd, 0x63, 0x84, 0x01, 0x3e, 0x62, 0xac, 0xa4, 0x3e,
  0x0a, 0x0e, 0x1a, 0x3e, 0x47, 0x4f, 0x18, 0x3e, 0xe6, 0xf1, 0x0a, 0xbe,
  0xc4, 0x7b, 0x34, 0x3e, 0x96, 0x17, 0x8e, 0xbe, 0x9f, 0xff, 0x9d, 0x3e,
  0x15, 0x2c, 0x92, 0xbe, 0x8d, 0x1f, 0xb5, 0x3e, 0x21, 0x04, 0x2e, 0xbe,
  0x26, 0xce, 0x16, 0x3c, 0xfc, 0xa3, 0xdf, 0x3d, 0x5e, 0xbf, 0xb3, 0x3e,
  0xb9, 0x9b, 0x7e, 0x3e, 0x00, 0x57, 0x3e, 0xbe, 0x2f, 0xcf, 0xd3, 0x3d,
  0xd3, 0x9c, 0x50, 0xbe, 0x59, 0x3d, 0x31, 0xbe, 0x93, 0xd8, 0x21, 0xbe,
  0x93, 0x98, 0xf9, 0x3d, 0xbf, 0x66, 0x83, 0x3d, 0x7c, 0x96, 0x3e, 0xbe,
  0xe3, 0x74, 0x97, 0x3e, 0x60, 0x0b, 0xec, 0xbc, 0x82, 0x6c, 0x7e, 0xbe,
  0x97, 0x07, 0x69, 0xbd, 0xa1, 0x0a, 0x29, 0x3e, 0x92, 0x3d, 0xa4, 0xbe,
  0xfd, 0x66, 0x5a, 0xbe, 0x68, 0x7f, 0x44, 0xbe, 0xea, 0xad, 0x1b, 0x3d,
  0x9b, 0xdb, 0xa3, 0xbd, 0x38, 0xdd, 0xf3, 0xbd, 0x5b, 0x4f, 0x49, 0x3e,
  0x8f, 0x1a, 0xbc, 0xbc, 0xe0, 0x4f, 0x89, 0x3d, 0xae, 0xb2, 0x06, 0x3e,
  0x48, 0x6e, 0x2c, 0xbd, 0xce, 0x1b, 0xa5, 0x3d, 0x2a, 0x42, 0xa5, 0xbe,
  0x94, 0xca, 0x97, 0xbe, 0x0a, 0xbe, 0x16, 0xbf, 0x28, 0xd7, 0xf8, 0xbd,
  0x20, 0xb0, 0x4b, 0xbe, 0xdb, 0x14, 0x11, 0xbc, 0x1f, 0xe9, 0xa0, 0xbe,
  0xbc, 0x1e, 0xd8, 0xbd, 0x74, 0x23, 0xf8, 0x3d, 0xac, 0x3e, 0xe5, 0xbd,
  0xe2, 0x93, 0x3d, 0xbe, 0x59, 0x0f, 0xeb, 0xbe, 0x50, 0x6f, 0x8e, 0xbe,
  0x15, 0xcd, 0x6a, 0x3e, 0xd8, 0xc0, 0x81, 0xbe, 0x7d, 0x73, 0x3f, 0xbd,
  0x73, 0xfe, 0x53, 0xbe, 0x52, 0x39, 0xe3, 0xbb, 0x5f, 0x3a, 0xa3, 0x3e,
  0x41, 0x26, 0xe0, 0x3e, 0x45, 0x29, 0x4b, 0xbe, 0x82, 0xa9, 0x37, 0x3e,
  0xb0, 0x55, 0x46, 0x3c, 0xc0, 0x81, 0x95, 0xbc, 0xb1, 0xc7, 0x67, 0xbe,
  0xf5, 0x1e, 0xfc, 0xbd, 0x11, 0x5b, 0x9a, 0x3e, 0x21, 0xaf, 0xc9, 0x3d,
  0x32, 0x96, 0x4a, 0x3d, 0x4f, 0x29, 0x33, 0xbe, 0x64, 0x1c, 0xe3, 0xbd,
  0xd9, 0x82, 0xbc, 0x3d, 0xdf, 0xde, 0xb7, 0x3e, 0x8e, 0xeb, 0x67, 0x3d,
  0x2e, 0xd5, 0x6b, 0xbd, 0xb2, 0x27, 0x87, 0xbd, 0xcd, 0xad, 0x16, 0xbd,
  0x45, 0xc4, 0x84, 0x3e, 0xff, 0xe9, 0x73, 0xbd, 0x11, 0xea, 0x2a, 0x3e,
  0xac, 0x6c, 0x43, 0x3e, 0x03, 0xa1, 0x3c, 0x3e, 0x8e, 0x36, 0x47, 0x3e,
  0xa5, 0xf2, 0x9f, 0x3d, 0x41, 0x5b, 0xa5, 0x3e, 0xc2, 0xf2, 0xff, 0xff,
  0x04, 0x00, 0x00, 0x00, 0x00, 0x04, 0x00, 0x00, 0x46, 0xed, 0x40, 0x3d,
  0xcb, 0xa1, 0xea, 0x3e, 0x1b, 0xb8, 0xe0, 0x3d, 0x09, 0x2a, 0xca, 0x3d,
  0x2b, 0xb9, 0xfd, 0x3d, 0x8c, 0x55, 0xe3, 0xbd, 0x20, 0x8a, 0x78, 0x3d,
  0x58, 0xe5, 0x01, 0xbc, 0x4e, 0xba, 0x10, 0xbe, 0xc7, 0x55, 0x91, 0x3c,
  0x50, 0x1f, 0x41, 0x3d, 0xfb, 0x4d, 0x11, 0xbe, 0x1a, 0x10, 0x37, 0xbe,
  0x4b, 0xdf, 0x4b, 0x3d, 0x80, 0x68, 0x2f, 0x3e, 0x39, 0x78, 0x3f, 0xbe,
  0xdc, 0xf5, 0x0c, 0x3e, 0xc4, 0x7a, 0x1f, 0x3e, 0x88, 0xdc, 0xb0, 0xbc,
  0x1d, 0x6a, 0x04, 0xbe, 0xd4, 0xde, 0x13, 0x3e, 0xc5, 0x42, 0x40, 0x3d,
  0x55, 0x59, 0x09, 0x3d, 0x09, 0xaf, 0x0a, 0x3e, 0xe7, 0x83, 0xa4, 0x3c,
  0xdb, 0x50, 0xde, 0x3e, 0x35, 0x50, 0x00, 0xbd, 0xe0, 0xac, 0x93, 0xbd,
  0x7a, 0x1b, 0x0a, 0xbe, 0x1c, 0x40, 0x03, 0x3e, 0x75, 0xae, 0x3d, 0x3e,
  0xde, 0xe2, 0x0e, 0x3d, 0xa6, 0x6d, 0x34, 0x3d, 0xac, 0xad, 0xa4, 0x3c,
  0x26, 0xc9, 0x82, 0x3c, 0x4d, 0xe6, 0xf9, 0xbb, 0x6f, 0x39, 0x2c, 0x3d,
  0x24, 0x0a, 0x2f, 0xbe, 0x3c, 0xe2, 0x42, 0xbe, 0xb1, 0xc2, 0xb1, 0x3e,
  0x61, 0x22, 0x29, 0xbe, 0xac, 0x8a, 0x44, 0xbe, 0xc2, 0xb6, 0x92, 0x3c,
  0xfa, 0xe0, 0x51, 0xbe, 0xb5, 0xd8, 0x1a, 0xbe, 0x4c, 0x51, 0x02, 0xbd,
  0x58, 0x3b, 0x68, 0x3e, 0x56, 0xbe, 0x31, 0x3e, 0xe4, 0x79, 0x4d, 0x3e,
  0xf1, 0x74, 0xfe, 0x3d, 0xed, 0x97, 0x64, 0x3d, 0x78, 0x6c, 0x0c, 0x3e,
  0x87, 0xa2, 0xad, 0xbc, 0x58, 0x8a, 0xa4, 0xbd, 0xe7, 0x78, 0xbb, 0x3d,
  0xe0, 0xaa, 0x50, 0xbd, 0xe1, 0xd6, 0x2e, 0x3e, 0xfd, 0x3d, 0x4e, 0xbd,
  0x0a, 0x3e, 0x24, 0x3e, 0x86, 0x3b, 0xb1, 0xbd, 0x3e, 0x6d, 0x93, 0x3d,
  0xf0, 0x89, 0xc2, 0xbd, 0x42, 0x7b, 0x9e, 0x3e, 0x95, 0xa2, 0x75, 0x3d,
  0x42, 0x6a, 0x8a, 0xbe, 0xc9, 0x89, 0xd1, 0x3d, 0x5e, 0x19, 0x86, 0xbd,
  0xd1, 0xf9, 0xd9, 0x3d, 0x33, 0x86, 0x87, 0x3e, 0xf5, 0xe4, 0xbe, 0xbd,
  0x51, 0x1f, 0x39, 0xbe, 0xa9, 0x24, 0x2e, 0xbd, 0x9f, 0x71, 0xff, 0xbd,
  0xa1, 0x1e, 0xb9, 0x3c, 0x20, 0x8f, 0xe2, 0x3c, 0xb8, 0x68, 0x3f, 0xbe,
  0x3d, 0x6b, 0x84, 0x3c, 0x7c, 0x35, 0x98, 0x3d, 0x4c, 0x8f, 0x56, 0xbe,
  0x2d, 0x3f, 0x46, 0xbe, 0x5b, 0x1f, 0x64, 0xbd, 0x3b, 0x6b, 0x24, 0x3d,
  0xeb, 0x4e, 0x98, 0x3c, 0x4b, 0xcd, 0x63, 0x3c, 0x89, 0x21, 0xc1, 0x3d,
  0xf3, 0x55, 0x36, 0xbe, 0xed, 0x83, 0xc2, 0x3d, 0x67, 0x5b, 0xb8, 0x3d,
  0x97, 0xbe, 0xc5, 0x3d, 0xf6, 0x41, 0x1f, 0xbe, 0x83, 0xac, 0xbf, 0x3d,
  0x4e, 0xdd, 0x0f, 0x3d, 0x04, 0x97, 0x6e, 0x3d, 0xf4, 0x43, 0x5f, 0x3e,
  0xbe, 0x39, 0x1f, 0x3d, 0xa3, 0x37, 0xc4, 0x3d, 0x27, 0xea, 0xa2, 0x3d,
  0x2e, 0xc6, 0x05, 0xbe, 0x4d, 0x33, 0x02, 0x3d, 0xa8, 0x3d, 0xf9, 0x3d,
  0xe4, 0xbb, 0xe1, 0xbd, 0xa5, 0x4c, 0x55, 0xbd, 0xfa, 0x7d, 0xef, 0xbd,
  0xc8, 0xfb, 0xca, 0x3c, 0xba, 0x2a, 0xcc, 0x3c, 0xb4, 0xfb, 0x4e, 0x3e,
  0x1f, 0xd5, 0x20, 0xbd, 0x8f, 0x42, 0xc0, 0xbd, 0x1e, 0x60, 0x97, 0xbd,
  0x08, 0x8b, 0xcb, 0xbc, 0xc3, 0x4c, 0x0d, 0x3e, 0x5a, 0xc3, 0xa9, 0xbd,
  0x30, 0xab, 0x82, 0x3e, 0x47, 0x48, 0xc4, 0xbd, 0x70, 0x60, 0x0d, 0xbe,
  0x2d, 0xb7, 0xc1, 0x3d, 0x41, 0x62, 0x9e, 0xbc, 0x21, 0xb2, 0x21, 0x3e,
  0x33, 0x25, 0x52, 0x3e, 0x7e, 0x6a, 0x38, 0xbe, 0x34, 0xc1, 0x3a, 0xbd,
  0x6c, 0x97, 0x43, 0xbd, 0x89, 0xef, 0x33, 0xbd, 0x74, 0xb2, 0x12, 0x3d,
  0xa0, 0x4e, 0x24, 0x3e, 0x9e, 0x3e, 0x1f, 0xbe, 0xda, 0x6b, 0xa7, 0x3c,
  0x6a, 0x35, 0x8d, 0xbd, 0x10, 0x00, 0x39, 0x3e, 0x2b, 0x57, 0x90, 0xbc,
  0xb5, 0x26, 0xa5, 0xbe, 0xa5, 0x47, 0x50, 0x3d, 0x9c, 0x05, 0xd7, 0x3e,
  0xef, 0x75, 0x16, 0x3e, 0xd2, 0x1c, 0x25, 0x3e, 0xf8, 0xcb, 0xe1, 0x3c,
  0xee, 0x2d, 0x48, 0xbe, 0x29, 0x44, 0x05, 0x3c, 0x21, 0x5a, 0x81, 0xbe,
  0x1a, 0x8a, 0xa3, 0xbe, 0x0e, 0x13, 0x08, 0x3f, 0x93, 0x74, 0x14, 0x3f,
  0x27, 0x52, 0xca, 0x3d, 0x2d, 0xd6, 0xb9, 0xbe, 0x59, 0x9e, 0xc8, 0xbd,
  0x87, 0xac, 0x6c, 0x3b, 0xb3, 0x50, 0x64, 0xbe, 0xd5, 0xa8, 0x7a, 0x3e,
  0xde, 0x0f, 0xeb, 0x3d, 0x70, 0xab, 0x8f, 0x3d, 0x8b, 0x1d, 0x6b, 0xbd,
  0x50, 0x9a, 0xc2, 0xbd, 0x96, 0x6e, 0x1e, 0x3e, 0x29, 0xef, 0xe6, 0x3d,
  0xf9, 0x64, 0x56, 0x3d, 0x57, 0x2c, 0xbf, 0xbd, 0xc8, 0xb8, 0xa1, 0xbc,
  0x7b, 0x1e, 0xe3, 0xbb, 0x32, 0xa4, 0x0e, 0x3e, 0x95, 0xe0, 0x00, 0x3e,
  0xbf, 0x34, 0x6e, 0xbd, 0x91, 0xf6, 0xdd, 0x3d, 0x10, 0x22, 0x4e, 0x3d,
  0xb2, 0x2a, 0x22, 0x3d, 0x5a, 0x6b, 0x55, 0x3d, 0x09, 0x12, 0x5b, 0xbe,
  0x9c, 0x15, 0x7f, 0xbe, 0x76, 0x4c, 0x64, 0xbd, 0x2a, 0x70, 0x8f, 0xbe,
  0xe6, 0xaa, 0xfa, 0xbd, 0xfe, 0xf3, 0x95, 0xbe, 0x08, 0x37, 0x83, 0xbd,
  0xd9, 0x7f, 0x42, 0xbd, 0x4f, 0xf6, 0x89, 0xbe, 0x66, 0x6c, 0x56, 0xbe,
  0xf0, 0x66, 0x97, 0x3c, 0x23, 0x9b, 0x76, 0xbd, 0xa7, 0x8e, 0x48, 0x3e,
  0xa0, 0x86, 0x32, 0x3e, 0x4e, 0x8e, 0x60, 0xbd, 0x28, 0x7a, 0xa3, 0xbc,
  0x31, 0x6d, 0x34, 0x3d, 0x43, 0x4f, 0x0d, 0x3e, 0x31, 0xa6, 0xd6, 0xbd,
  0x64, 0x88, 0x2c, 0x3e, 0x6d, 0xff, 0x4e, 0xbe, 0x32, 0x9c, 0x13, 0xbc,
  0x2a, 0x4c, 0x73, 0xbd, 0xbc, 0x3d, 0xe5, 0xbd, 0x36, 0x04, 0x82, 0xbd,
  0x0f, 0x48, 0xb2, 0x3e, 0x31, 0x74, 0xd6, 0xbd, 0x2b, 0x04, 0x8a, 0xbe,
  0x54, 0xb6, 0x3b, 0xbe, 0xcc, 0xac, 0xd4, 0xbe, 0xaf, 0xaa, 0x35, 0x3e,
  0xe4, 0x59, 0x16, 0x3d, 0xda, 0x6f, 0x5c, 0xbd, 0x79, 0x58, 0x0a, 0x3e,
  0x35, 0x75, 0x20, 0xbe, 0xba, 0xa9, 0x3c, 0x3e, 0xba, 0x9e, 0x2b, 0x3e,
  0x70, 0xd0, 0x7f, 0xbe, 0xf4, 0x4d, 0x69, 0x3e, 0x21, 0xd3, 0x69, 0x3e,
  0x97, 0xf5, 0x45, 0x3e, 0x2d, 0x7e, 0xd1, 0x3d, 0x06, 0xff, 0xaa, 0xbe,
  0x8b, 0xb7, 0xb6, 0xbe, 0x7e, 0x8b, 0x1a, 0x3f, 0x33, 0x91, 0xfd, 0x3c,
  0x3a, 0xac, 0xf4, 0xbd, 0x84, 0xf0, 0xf3, 0xbd, 0x56, 0x39, 0x16, 0xbe,
  0xaf, 0xed, 0x56, 0xbe, 0x8f, 0xe9, 0xe0, 0x3c, 0x99, 0x56, 0xa9, 0xbe,
  0xdf, 0x70, 0x26, 0xbd, 0xcc, 0x20, 0x96, 0xbe, 0xc4, 0x4f, 0x7d, 0xbd,
  0xe7, 0xdb, 0x90, 0x3d, 0x67, 0x6b, 0xa2, 0x3b, 0x22, 0x14, 0x01, 0xbc,
  0xec, 0xa9, 0x1d, 0x3e, 0x11, 0xfe, 0xb3, 0xbd, 0xf1, 0x01, 0x8f, 0xbe,
  0xca, 0xc0, 0xe8, 0x3d, 0xc0, 0xbb, 0x21, 0xbe, 0x31, 0x1b, 0x24, 0x3d,
  0x60, 0x81, 0x45, 0xbe, 0xf7, 0x09, 0x21, 0xbe, 0x3f, 0x69, 0xcc, 0xbd,
  0xea, 0x21, 0x39, 0xbe, 0x1b, 0xe8, 0x0e, 0xbe, 0x6c, 0x73, 0xdc, 0x3d,
  0x1b, 0x10, 0x42, 0xbe, 0x61, 0xa7, 0xb8, 0x3d, 0x97, 0xd4, 0x49, 0xbb,
  0x6c, 0x2a, 0x49, 0x3d, 0xe2, 0x53, 0x57, 0xbb, 0x6f, 0xd5, 0x47, 0x3d,
  0x85, 0xb0, 0x22, 0xbe, 0x6d, 0xb1, 0x8d, 0x3d, 0x92, 0xcb, 0x13, 0x3d,
  0x68, 0x0e, 0x0f, 0x3e, 0x7d, 0x3e, 0x52, 0x3e, 0x58, 0x5d, 0x2e, 0x3d,
  0x37, 0x98, 0x9c, 0xbd, 0xbd, 0xae, 0xbc, 0x3c, 0xdd, 0x3b, 0xf6, 0x3b,
  0x99, 0x43, 0x86, 0x3d, 0xd7, 0x01, 0xb2, 0x3d, 0x95, 0xe0, 0x39, 0xbe,
  0xb0, 0xfc, 0x96, 0x3d, 0x45, 0x1c, 0x46, 0xbe, 0x3e, 0x71, 0xf2, 0xbd,
  0xce, 0xf6, 0xff, 0xff, 0x04, 0x00, 0x00, 0x00, 0x00, 0x04, 0x00, 0x00,
  0xeb, 0x1a, 0xbe, 0x3d, 0xd2, 0x57, 0x9d, 0xbe, 0x5a, 0x95, 0xfc, 0xbc,
  0x35, 0xab, 0x45, 0x3e, 0x32, 0xcf, 0x02, 0x3e, 0x26, 0x30, 0x80, 0xbe,
  0x6c, 0xee, 0x50, 0x3d, 0x7f, 0x49, 0xbc, 0xbd, 0x73, 0x7b, 0x11, 0x3e,
  0xeb, 0x05, 0x4b, 0xbe, 0xd4, 0x7c, 0xfc, 0x39, 0x65, 0xd8, 0x03, 0xbe,
  0x33, 0xee, 0x8d, 0xbd, 0x1c, 0xe0, 0x2f, 0xbe, 0x06, 0x6b, 0x33, 0x3d,
  0x73, 0x36, 0xbb, 0x3d, 0x0a, 0x7a, 0x0a, 0x3e, 0x35, 0x4d, 0xa2, 0xbd,
  0xe8, 0x0c, 0x38, 0x3c, 0xb3, 0xa2, 0x3a, 0x3e, 0x84, 0x59, 0x1d, 0x3e,
  0x34, 0xd8, 0x9b, 0x3e, 0x87, 0xe3, 0xc4, 0x3d, 0x47, 0xd0, 0x98, 0xbd,
  0x50, 0x95, 0xa0, 0xbd, 0xcd, 0x48, 0x8c, 0xbe, 0x37, 0x7b, 0xed, 0x3c,
  0x6f, 0xee, 0x13, 0xbe, 0x7e, 0xad, 0xc3, 0xbb, 0x68, 0x7d, 0x61, 0x3e,
  0x70, 0x80, 0x3d, 0xbd, 0xee, 0x68, 0x89, 0xbd, 0x2c, 0x2e, 0x37, 0xbe,
  0x51, 0x6a, 0x03, 0xbe, 0x2f, 0x32, 0x69, 0xbd, 0xc8, 0x74, 0x3f, 0xbb,
  0x1c, 0x78, 0xa9, 0xbe, 0x71, 0x6b, 0xd0, 0xbd, 0xec, 0x97, 0xbb, 0xbe,
  0x3d, 0x35, 0x17, 0xbd, 0xd1, 0x58, 0x2c, 0x3e, 0xc1, 0x38, 0x92, 0x3c,
  0x70, 0xdc, 0x12, 0x3e, 0xaf, 0x65, 0x92, 0x3d, 0xf5, 0xeb, 0xf2, 0xbd,
  0x17, 0xb7, 0x4d, 0x3c, 0x23, 0x8c, 0xc2, 0xbd, 0x36, 0xa9, 0x66, 0x3d,
  0x1d, 0xd9, 0xdc, 0xbe, 0x10, 0x8f, 0xb5, 0x3d, 0xf9, 0x94, 0x0d, 0x3e,
  0xdb, 0x5f, 0x16, 0x3c, 0x03, 0x91, 0x54, 0xbd, 0x61, 0x2d, 0x8d, 0xbe,
  0x49, 0x8d, 0x8d, 0xbe, 0x47, 0xa8, 0xbc, 0x3d, 0x4c, 0x9b, 0xc7, 0xbd,
  0x5a, 0xed, 0x00, 0x3e, 0xa9, 0x5a, 0x02, 0x3c, 0x08, 0x61, 0xd0, 0xbd,
  0x32, 0x0f, 0x1e, 0xbe, 0xf4, 0x73, 0x5b, 0x3d, 0x46, 0x58, 0x33, 0xbe,
  0x9a, 0xd0, 0x59, 0xbe, 0x6a, 0x22, 0xbc, 0xbd, 0x14, 0x8c, 0xf2, 0xbd,
  0x4a, 0xc7, 0x18, 0xbd, 0x13, 0xa2, 0x9d, 0x3d, 0x07, 0xdb, 0x4b, 0x3e,
  0xe7, 0x9e, 0x5c, 0x3e, 0xfe, 0x87, 0x30, 0xbe, 0x8e, 0x57, 0x6f, 0xbe,
  0x34, 0xec, 0xd2, 0xbd, 0xd8, 0x8a, 0xeb, 0xbc, 0xaa, 0x81, 0x10, 0xbe,
  0x3c, 0xe8, 0x44, 0x3e, 0x6f, 0xf3, 0x25, 0xbe, 0x39, 0x78, 0x4c, 0xbe,
  0xd1, 0x27, 0x05, 0x3e, 0xbd, 0x9c, 0x33, 0xbb, 0xc1, 0xec, 0x88, 0xbd,
  0x8b, 0x55, 0x21, 0x3e, 0xcd, 0xac, 0xe7, 0x3a, 0xa2, 0xb0, 0x19, 0x3e,
  0xf8, 0x90, 0x86, 0x3e, 0xa5, 0xf9, 0x35, 0x3d, 0xc9, 0x19, 0x0a, 0x3e,
  0x89, 0x97, 0xbf, 0xbd, 0x06, 0x7b, 0x32, 0x3e, 0x02, 0xa5, 0xcd, 0x3d,
  0x6e, 0x33, 0x3f, 0xbe, 0x0c, 0x9e, 0x1b, 0xbd, 0x2d, 0x35, 0x2a, 0x3e,
  0x23, 0x0e, 0x5a, 0xba, 0xe9, 0xba, 0x7e, 0xbe, 0x20, 0x15, 0x6f, 0x3e,
  0xde, 0x49, 0x41, 0xbe, 0xf0, 0xf7, 0x0a, 0x3d, 0x2a, 0x1b, 0x4a, 0x3e,
  0xaa, 0x3a, 0xe9, 0xbc, 0x0d, 0x00, 0x44, 0xbd, 0xb7, 0xae, 0x2e, 0x3e,
  0x6a, 0x55, 0x3f, 0x3d, 0xae, 0x5b, 0x16, 0x3e, 0x48, 0xeb, 0x63, 0x3d,
  0xca, 0x6b, 0xa2, 0x3c, 0x4d, 0xde, 0x23, 0x3e, 0xd9, 0x34, 0xf3, 0x3c,
  0x4b, 0x80, 0xd6, 0x3d, 0xc6, 0x88, 0x36, 0xbe, 0x25, 0x53, 0x02, 0xbe,
  0x5e, 0x0e, 0xa9, 0x3d, 0x8f, 0x6a, 0x22, 0x3e, 0xd2, 0x3b, 0xa6, 0xbd,
  0xc4, 0x56, 0x86, 0x3e, 0x05, 0xef, 0x0a, 0x3e, 0xca, 0x4b, 0x66, 0xbe,
  0xb0, 0xdd, 0x74, 0xbe, 0x1a, 0x49, 0xbd, 0x3e, 0xa2, 0xd4, 0xf6, 0xbc,
  0x86, 0xba, 0xd8, 0xbd, 0xd4, 0x54, 0x4a, 0xbd, 0xbb, 0x9a, 0x3b, 0xbe,
  0x12, 0xad, 0x55, 0xbd, 0xba, 0x77, 0xfb, 0x3c, 0xd0, 0xdf, 0x4d, 0xbe,
  0x3f, 0x1f, 0x5e, 0x3e, 0xc0, 0x91, 0x07, 0x3e, 0xc1, 0x02, 0x73, 0xbd,
  0x9e, 0x79, 0x74, 0xbd, 0xe4, 0xac, 0xb2, 0x3e, 0x1a, 0x8f, 0x2a, 0x3d,
  0x17, 0x8b, 0x0d, 0xbd, 0x17, 0x19, 0x1d, 0xbd, 0xc7, 0xf8, 0x9d, 0x3d,
  0x8a, 0xf6, 0x90, 0x3e, 0xff, 0xbd, 0x9a, 0x3d, 0x29, 0xa7, 0x0e, 0x3e,
  0xb7, 0x6a, 0x11, 0x3d, 0xc4, 0x91, 0xc9, 0x3c, 0x44, 0x72, 0x91, 0xbd,
  0xf4, 0xa6, 0x9b, 0xbb, 0x42, 0x71, 0x9b, 0x3d, 0x62, 0x0e, 0x39, 0x3e,
  0xf0, 0xf0, 0x05, 0x3d, 0x85, 0xd3, 0x19, 0x3d, 0xc1, 0x47, 0x32, 0x3d,
  0x84, 0x8f, 0x4d, 0x3d, 0x31, 0x2e, 0xc8, 0xbd, 0x22, 0xfb, 0xbc, 0x3c,
  0xa6, 0x5b, 0xa6, 0xbd, 0x81, 0xc9, 0x10, 0xbc, 0x8c, 0x35, 0x06, 0xbe,
  0x02, 0x77, 0x9d, 0x3c, 0xc5, 0x9a, 0x83, 0xbe, 0xa6, 0x2d, 0xa5, 0x3d,
  0xfb, 0xe7, 0xbd, 0x3d, 0x65, 0xda, 0x35, 0xbd, 0xb5, 0xe5, 0xb8, 0xbd,
  0x0f, 0xb1, 0x8b, 0x3c, 0x6c, 0xcd, 0x8e, 0x3e, 0x5d, 0x10, 0xdd, 0xbd,
  0x8d, 0xa1, 0xcf, 0xbd, 0x35, 0xdd, 0x9f, 0xbd, 0x50, 0x26, 0xb0, 0xbe,
  0x3c, 0x82, 0xa7, 0x3c, 0x57, 0x48, 0x76, 0x3e, 0xce, 0x3a, 0x80, 0xbe,
  0xe5, 0x9c, 0x6a, 0xbc, 0xe3, 0x66, 0x7f, 0x3c, 0xb6, 0xa4, 0xaf, 0x3d,
  0x08, 0xe0, 0x81, 0x3d, 0xbe, 0x5e, 0x26, 0xbd, 0x7b, 0x30, 0x94, 0xbd,
  0x6e, 0x6c, 0x8c, 0x3e, 0x64, 0x54, 0x9d, 0x3e, 0xdf, 0x4d, 0x94, 0x3d,
  0x35, 0xec, 0x0c, 0xbd, 0xe5, 0x1f, 0x94, 0x3b, 0x99, 0x1d, 0xfe, 0x3c,
  0xa4, 0xb4, 0x2c, 0x3d, 0xf4, 0x06, 0xf1, 0xbc, 0x19, 0x77, 0x5c, 0xbd,
  0x1d, 0x43, 0x8b, 0xbe, 0x94, 0x0a, 0x52, 0x3e, 0xcb, 0x10, 0xc0, 0xbd,
  0x6e, 0x66, 0xfe, 0x3e, 0xd4, 0x16, 0x1a, 0x3d, 0x54, 0x3e, 0x98, 0xbb,
  0x78, 0x42, 0xc2, 0xbd, 0x2e, 0x67, 0x31, 0xbd, 0x0d, 0xf4, 0x39, 0x3d,
  0x4d, 0xe7, 0x1d, 0x3e, 0x4e, 0xd9, 0xde, 0xbd, 0x0d, 0x0d, 0x49, 0x3d,
  0x7a, 0xc5, 0xc0, 0x3c, 0xe0, 0x66, 0xe5, 0x3d, 0x17, 0x61, 0xb2, 0x3e,
  0x6d, 0x17, 0x8e, 0xbe, 0xbf, 0xc7, 0x0b, 0xbe, 0x3b, 0xd6, 0xb1, 0xbc,
  0x6a, 0xa3, 0x8d, 0xbd, 0xf9, 0x8e, 0x1f, 0x3e, 0x70, 0xd3, 0x5e, 0x3e,
  0x2f, 0xb0, 0xc2, 0xbd, 0xa7, 0xd0, 0xd6, 0x3e, 0x0d, 0xb2, 0xbe, 0x3c,
  0xbe, 0x5a, 0x43, 0xbe, 0xd9, 0x40, 0x6d, 0x3e, 0xff, 0xf2, 0x13, 0xbe,
  0x02, 0x64, 0xb3, 0xbe, 0x17, 0x7a, 0x6b, 0xbe, 0x90, 0xf7, 0xe3, 0x3d,
  0x4d, 0xcd, 0xb0, 0x3e, 0x32, 0x3c, 0x70, 0xbd, 0xb1, 0xa0, 0xd4, 0x3c,
  0x6a, 0xfa, 0x70, 0x3e, 0x0d, 0xa6, 0xf6, 0xbc, 0x09, 0x09, 0xa8, 0xbe,
  0x88, 0x96, 0x6c, 0x3e, 0xa2, 0x46, 0x84, 0x3e, 0xa6, 0x42, 0x4c, 0x3e,
  0xde, 0xd8, 0x19, 0x3e, 0x2b, 0x66, 0x13, 0x3e, 0xaa, 0xae, 0xa5, 0x3d,
  0xc3, 0x42, 0x0b, 0xbe, 0x53, 0x5f, 0xf7, 0xbd, 0xff, 0x09, 0xcf, 0x3c,
  0x04, 0x07, 0x61, 0xbe, 0xfb, 0x1d, 0x00, 0x3e, 0xc9, 0xdf, 0x8d, 0x3e,
  0x37, 0x09, 0x94, 0x3e, 0x04, 0x4f, 0x4b, 0x3d, 0xb2, 0x48, 0xa9, 0xbe,
  0x08, 0x61, 0x3a, 0x3e, 0x14, 0x4d, 0x00, 0x3e, 0xe2, 0xe9, 0x61, 0xbd,
  0xa2, 0xba, 0xac, 0xbd, 0xe2, 0x47, 0x39, 0x3d, 0x94, 0x22, 0xc8, 0xbd,
  0x27, 0x4c, 0xe0, 0xbd, 0xb3, 0x95, 0x31, 0xbd, 0x3e, 0x34, 0xbe, 0x3e,
  0x31, 0x20, 0x75, 0x3d, 0xfb, 0x88, 0x46, 0xbe, 0x84, 0x68, 0x24, 0x3e,
  0x4e, 0xc4, 0x08, 0xba, 0x59, 0x73, 0xa3, 0x3e, 0x6d, 0xec, 0x92, 0x3e,
  0x63, 0x3c, 0x59, 0x3e, 0xed, 0xdb, 0x40, 0x3b, 0x07, 0xc0, 0xa6, 0x3d,
  0x7c, 0xcc, 0x7b, 0xbe, 0x1c, 0x1d, 0xad, 0x3d, 0xf0, 0x8c, 0x86, 0x3e,
  0x7c, 0x8f, 0x6f, 0xbd, 0xda, 0xfa, 0xff, 0xff, 0x04, 0x00, 0x00, 0x00,
  0x00, 0x04, 0x00, 0x00, 0x0c, 0x8b, 0x3b, 0xbe, 0x05, 0x04, 0xed, 0xbd,
  0x78, 0x5d, 0x48, 0x3e, 0x9e, 0xf8, 0x7a, 0x3d, 0x2b, 0x74, 0x6b, 0xbd,
  0xd3, 0xfe, 0xcf, 0x3d, 0xce, 0x62, 0xb2, 0xbc, 0xd7, 0xd3, 0x6f, 0xbe,
  0x9b, 0xe6, 0xdf, 0x3b, 0x51, 0x8e, 0x04, 0x3d, 0x4f, 0x01, 0x87, 0xbe,
  0xc0, 0xe8, 0xb4, 0x3c, 0x2f, 0xd6, 0x14, 0x3d, 0x6f, 0x9d, 0xe6, 0xbd,
  0xdf, 0x8f, 0x05, 0xbe, 0xb6, 0xdd, 0x89, 0x3d, 0xaf, 0xdb, 0x1a, 0xbf,
  0x53, 0x0a, 0x1e, 0xbe, 0x32, 0x62, 0x71, 0x3e, 0x4e, 0x94, 0x32, 0x3e,
  0x9e, 0x55, 0x2d, 0xbe, 0x19, 0x6d, 0x94, 0x3d, 0xd0, 0xa9, 0xaf, 0xbd,
  0x24, 0xa7, 0x90, 0xbe, 0xa4, 0x53, 0x77, 0xbe, 0xdb, 0xbd, 0x52, 0x3e,
  0xca, 0xc4, 0x13, 0x3e, 0xb1, 0x62, 0x78, 0xbe, 0x8b, 0xee, 0x90, 0xbd,
  0x26, 0x8e, 0x5d, 0x3e, 0x43, 0xb1, 0x2f, 0xbe, 0x81, 0x9e, 0x7a, 0x3e,
  0xb2, 0x3b, 0x5e, 0xbe, 0x4b, 0xd4, 0xef, 0x3d, 0x61, 0xf1, 0x9a, 0xbe,
  0x40, 0x8e, 0x18, 0x3c, 0x9e, 0x75, 0x91, 0x3e, 0x35, 0xae, 0x2c, 0xbe,
  0x17, 0xcd, 0xc9, 0xbc, 0xd4, 0x9c, 0x8c, 0xbd, 0x3f, 0x5c, 0x4d, 0xbe,
  0x7b, 0x23, 0x98, 0xbe, 0x30, 0xfb, 0x9a, 0xbe, 0xba, 0x0a, 0x74, 0x3d,
  0x57, 0x35, 0xa4, 0xbd, 0x61, 0x62, 0xe0, 0xbc, 0xa7, 0xbb, 0x88, 0xbd,
  0xc3, 0xc0, 0xf2, 0x3d, 0x10, 0x90, 0x30, 0xbd, 0xc6, 0x79, 0xbb, 0xbd,
  0xaf, 0xb6, 0x20, 0xbe, 0x2e, 0xfa, 0xdf, 0x3d, 0xa7, 0xfb, 0x0a, 0x3e,
  0x9e, 0xf9, 0xd0, 0x3d, 0x69, 0x82, 0xb6, 0xbe, 0xdd, 0x93, 0xf1, 0x3d,
  0x3b, 0xb7, 0xa2, 0xbd, 0x80, 0xdb, 0x10, 0x3e, 0x29, 0x55, 0xbe, 0x3d,
  0x1b, 0x72, 0x3d, 0xbe, 0x38, 0xec, 0xaf, 0xbc, 0x3c, 0xc6, 0x20, 0x3e,
  0xeb, 0x1e, 0x96, 0xbe, 0x2b, 0xc0, 0xf6, 0x3d, 0x78, 0x47, 0x88, 0xbd,
  0x36, 0x11, 0xb5, 0x3e, 0x91, 0xf7, 0xc4, 0xbd, 0x65, 0x4e, 0x1e, 0x3e,
  0xbb, 0x2e, 0x82, 0xbd, 0xad, 0x2b, 0x8c, 0xbe, 0x88, 0x26, 0x3a, 0xbc,
  0x45, 0x09, 0x87, 0xbd, 0xa0, 0xe0, 0x35, 0x3d, 0xf7, 0x46, 0x13, 0xbe,
  0x10, 0x16, 0x3e, 0xbd, 0x19, 0x37, 0x81, 0xbe, 0x87, 0xd5, 0x4c, 0x3e,
  0x3b, 0xd6, 0x6f, 0x3c, 0x4e, 0x0b, 0xef, 0x3d, 0x59, 0x98, 0xb7, 0x3c,
  0x24, 0x07, 0xdd, 0xbd, 0x47, 0xe2, 0xc3, 0x3e, 0x81, 0x4b, 0x00, 0xbe,
  0x9e, 0x45, 0xad, 0xbd, 0x46, 0xee, 0x22, 0xbe, 0xe3, 0x8c, 0x55, 0xbd,
  0xe4, 0xfc, 0xa2, 0xbe, 0x98, 0x8c, 0x02, 0x3e, 0x85, 0x8e, 0x93, 0xbe,
  0x61, 0x87, 0x43, 0x3e, 0x78, 0xec, 0x1a, 0x3e, 0xfb, 0xad, 0x7e, 0x3d,
  0x95, 0x9f, 0xa3, 0x3c, 0x1c, 0x36, 0x87, 0x3d, 0x07, 0x25, 0xb4, 0xbd,
  0x79, 0xa9, 0x90, 0xbe, 0x84, 0xdd, 0x41, 0xbe, 0x7c, 0x0a, 0x9c, 0x3e,
  0xcf, 0x93, 0xb6, 0xbe, 0xcf, 0xe1, 0xf2, 0xbd, 0x67, 0x42, 0x8f, 0x3d,
  0x3a, 0x16, 0x8b, 0xbd, 0x7d, 0x08, 0x14, 0xbe, 0x6d, 0x25, 0x7b, 0xbc,
  0x65, 0x92, 0xc0, 0xbd, 0xdb, 0xb2, 0x26, 0xbd, 0x6d, 0xbe, 0x95, 0xbd,
  0x69, 0x4d, 0xcb, 0xbd, 0x41, 0x6d, 0x59, 0xbe, 0xed, 0x2a, 0xa4, 0x3e,
  0xab, 0x4b, 0xa9, 0x3c, 0xb3, 0xac, 0x88, 0x3d, 0xfe, 0x9e, 0xbc, 0x3e,
  0xe5, 0x1d, 0xd4, 0xbe, 0x5e, 0x2b, 0xbc, 0xbd, 0x5b, 0x3a, 0xa8, 0x3d,
  0xee, 0x93, 0x8e, 0xbe, 0x84, 0x29, 0xf4, 0xbe, 0x99, 0xf0, 0xc6, 0x3e,
  0xcd, 0x54, 0xab, 0xbd, 0x8e, 0xea, 0x8e, 0xbe, 0x67, 0xba, 0x9f, 0x3d,
  0xd0, 0xbe, 0xb2, 0x3d, 0x15, 0x81, 0x2a, 0x3d, 0x9c, 0x73, 0xf7, 0xbe,
  0x8a, 0xd6, 0x84, 0xbe, 0xec, 0x8e, 0x8f, 0x3e, 0x2b, 0x52, 0x0f, 0xbe,
  0xaa, 0xd8, 0xc5, 0xbd, 0x59, 0x67, 0xb7, 0x3c, 0x47, 0xa2, 0x00, 0x3c,
  0x74, 0xde, 0xa6, 0xbd, 0x1e, 0x90, 0xb7, 0x3e, 0x24, 0x70, 0xb1, 0x3c,
  0x8c, 0xa6, 0x2c, 0xbe, 0xe0, 0x21, 0x36, 0x3e, 0xce, 0x02, 0xcb, 0xbe,
  0xaf, 0x30, 0xfa, 0xbd, 0xfa, 0x0d, 0xc8, 0x3d, 0xba, 0xe2, 0xed, 0x3c,
  0xae, 0x1c, 0x16, 0xbd, 0x04, 0x6a, 0x38, 0x3e, 0x86, 0xa8, 0x04, 0xbf,
  0x3b, 0xf3, 0x3d, 0xbe, 0x36, 0xf2, 0x9e, 0xbc, 0x54, 0x45, 0xc6, 0xbd,
  0x98, 0x35, 0x93, 0x3c, 0x95, 0xc5, 0xc2, 0xbd, 0x02, 0x1e, 0x1a, 0xbe,
  0xc5, 0x5d, 0xdc, 0x3e, 0x48, 0x04, 0x93, 0x3d, 0x5b, 0x4d, 0xb8, 0x3d,
  0x47, 0xf7, 0x08, 0x3e, 0x76, 0x3a, 0x69, 0x3d, 0xa3, 0x62, 0x4f, 0xbd,
  0xa2, 0xe7, 0x61, 0xbd, 0x2d, 0xaf, 0x6f, 0xbd, 0xf1, 0xa0, 0x84, 0xbd,
  0xc3, 0x16, 0x37, 0xbd, 0xd8, 0x3d, 0x9a, 0x3d, 0xdc, 0xfd, 0x33, 0xbe,
  0x3f, 0x0d, 0x6e, 0xbe, 0x59, 0x25, 0xfe, 0xbc, 0x31, 0xa5, 0x03, 0x3e,
  0xf0, 0xc8, 0xa2, 0xbe, 0x98, 0x5e, 0xe5, 0x3d, 0x9f, 0x6b, 0xc1, 0xbd,
  0x7b, 0xdb, 0x80, 0xbc, 0x77, 0x41, 0xb2, 0xbe, 0xdb, 0x3e, 0x48, 0xbd,
  0x15, 0xa3, 0x33, 0x3c, 0x56, 0x48, 0xea, 0xbb, 0x24, 0x6e, 0x18, 0x3c,
  0x01, 0x81, 0x1e, 0x3e, 0x6b, 0xf0, 0x2c, 0xbe, 0x0e, 0x34, 0x08, 0xbe,
  0x7d, 0xe3, 0x0c, 0x3e, 0x3f, 0x1d, 0x5b, 0xbc, 0x71, 0x47, 0x8c, 0xbd,
  0xdb, 0xa2, 0xad, 0x3e, 0xbf, 0x59, 0x4e, 0xbe, 0x76, 0xcb, 0x86, 0xbe,
  0x14, 0xb4, 0x8f, 0x3e, 0xc8, 0xb7, 0x64, 0x3e, 0x65, 0x31, 0x38, 0x3d,
  0x81, 0x34, 0x0e, 0x3e, 0xf6, 0xdd, 0x9c, 0x3d, 0xd7, 0xf1, 0x10, 0xbe,
  0x1a, 0xcd, 0x03, 0x3d, 0xbe, 0x62, 0x2c, 0xbd, 0x43, 0xcb, 0x9e, 0x3d,
  0x27, 0x17, 0x2c, 0x3e, 0x7f, 0x7b, 0x88, 0x3d, 0x03, 0xa0, 0xef, 0xbd,
  0x01, 0x33, 0x88, 0xbe, 0x14, 0xc1, 0x7e, 0x3d, 0xfb, 0x07, 0xa7, 0xbd,
  0xb0, 0xff, 0xf8, 0x3d, 0x49, 0x52, 0xac, 0xbb, 0xeb, 0x36, 0x11, 0xbe,
  0x3b, 0xb4, 0xb6, 0xbe, 0x81, 0x8b, 0x12, 0xbe, 0x6f, 0xdd, 0xdd, 0xbd,
  0xdb, 0xf0, 0xdb, 0xbe, 0x8c, 0x9c, 0x17, 0x3e, 0x65, 0xe1, 0x5d, 0x3e,
  0x03, 0x35, 0xd6, 0xbe, 0x89, 0x39, 0xf5, 0xbd, 0xb3, 0xc0, 0xf4, 0x3d,
  0x9f, 0x09, 0x20, 0x3e, 0xcd, 0x8f, 0xf0, 0xbd, 0x28, 0x9a, 0xc5, 0xbd,
  0x80, 0xf8, 0x11, 0xbe, 0x2e, 0x9b, 0x03, 0xbe, 0x2a, 0x08, 0x2e, 0x3c,
  0xee, 0xc2, 0x1b, 0xbd, 0x47, 0x5a, 0xa4, 0x3d, 0x6d, 0xc4, 0xaf, 0xbe,
  0x4e, 0xdb, 0xb4, 0xbd, 0x13, 0xbe, 0xcb, 0xbd, 0xb5, 0x0b, 0xbe, 0x3c,
  0xef, 0xac, 0x24, 0x3e, 0x51, 0x7a, 0xb1, 0xbe, 0x02, 0xbd, 0x18, 0xbe,
  0x06, 0xb9, 0x90, 0xbe, 0xf5, 0x23, 0x72, 0xbe, 0x8c, 0xeb, 0x69, 0xbe,
  0x41, 0xd5, 0x53, 0xbd, 0xbe, 0x38, 0x27, 0xbe, 0xe2, 0x27, 0x4d, 0xbc,
  0x26, 0xbe, 0xe2, 0x3d, 0xec, 0x77, 0xcb, 0xbd, 0x36, 0x46, 0x88, 0xbc,
  0xa8, 0x40, 0xae, 0x3d, 0xfd, 0xd4, 0x12, 0xbd, 0x82, 0x19, 0x9a, 0xbe,
  0x0d, 0x8d, 0x08, 0xbd, 0x89, 0x35, 0x4a, 0xbe, 0x92, 0x47, 0x62, 0xbe,
  0x60, 0xf7, 0x90, 0xbe, 0xac, 0x62, 0xdb, 0xbd, 0xca, 0x8c, 0x7c, 0x3e,
  0x80, 0x07, 0x81, 0x3e, 0x37, 0xf5, 0x86, 0x3d, 0x04, 0xa1, 0xb0, 0x3e,
  0x45, 0x26, 0x45, 0x3e, 0xac, 0x5d, 0x4c, 0x3e, 0x11, 0xd6, 0x1a, 0xbd,
  0x5a, 0xd1, 0xbb, 0xbc, 0xaf, 0x8a, 0xf6, 0xbd, 0x10, 0x1d, 0xd1, 0xbd,
  0xe8, 0x88, 0xa5, 0x3d, 0xcd, 0xe8, 0x6b, 0xbd, 0x1a, 0x52, 0x28, 0xbd,
  0x4c, 0xa1, 0x80, 0xbe, 0xfe, 0x91, 0x11, 0x3e, 0xe6, 0xfe, 0xff, 0xff,
  0x04, 0x00, 0x00, 0x00, 0x08, 0x00, 0x00, 0x00, 0xd2, 0x15, 0x13, 0x3d,
  0xd2, 0x15, 0x13, 0xbd, 0xfa, 0xfe, 0xff, 0xff, 0x04, 0x00, 0x00, 0x00,
  0x28, 0x00, 0x00, 0x00, 0x34, 0xc8, 0xb0, 0x3e, 0x44, 0x4c, 0x4a, 0x3e,
  0xf5, 0xa6, 0xd0, 0x3d, 0xb4, 0x16, 0xd0, 0x3d, 0xfd, 0x3e, 0x65, 0xbd,
  0x3f, 0xa7, 0x47, 0x3e, 0x1d, 0x54, 0xd3, 0x3e, 0x60, 0xc7, 0xbc, 0x3e,
  0x78, 0x0c, 0x9e, 0x3e, 0x2f, 0x4c, 0x88, 0x3e, 0x2e, 0xff, 0xff, 0xff,
  0x04, 0x00, 0x00, 0x00, 0x40, 0x00, 0x00, 0x00, 0x00, 0x00, 0x00, 0x00,
  0x00, 0x00, 0x00, 0x00, 0x00, 0x00, 0x00, 0x00, 0x00, 0x00, 0x00, 0x00,
  0x00, 0x00, 0x00, 0x00, 0x00, 0x00, 0x00, 0x00, 0x00, 0x00, 0x00, 0x00,
  0x00, 0x00, 0x00, 0x00, 0x00, 0x00, 0x00, 0x00, 0x00, 0x00, 0x00, 0x00,
  0x00, 0x00, 0x00, 0x00, 0x00, 0x00, 0x00, 0x00, 0x00, 0x00, 0x00, 0x00,
  0x00, 0x00, 0x00, 0x00, 0x00, 0x00, 0x00, 0x00, 0x00, 0x00, 0x00, 0x00,
  0x24, 0xf7, 0xff, 0xff, 0x28, 0xf7, 0xff, 0xff, 0x0f, 0x00, 0x00, 0x00,
  0x4d, 0x4c, 0x49, 0x52, 0x20, 0x43, 0x6f, 0x6e, 0x76, 0x65, 0x72, 0x74,
  0x65, 0x64, 0x2e, 0x00, 0x01, 0x00, 0x00, 0x00, 0x14, 0x00, 0x00, 0x00,
  0x00, 0x00, 0x0e, 0x00, 0x18, 0x00, 0x14, 0x00, 0x10, 0x00, 0x0c, 0x00,
  0x08, 0x00, 0x04, 0x00, 0x0e, 0x00, 0x00, 0x00, 0x14, 0x00, 0x00, 0x00,
  0x1c, 0x00, 0x00, 0x00, 0xb0, 0x01, 0x00, 0x00, 0xb4, 0x01, 0x00, 0x00,
  0xb8, 0x01, 0x00, 0x00, 0x04, 0x00, 0x00, 0x00, 0x6d, 0x61, 0x69, 0x6e,
  0x00, 0x00, 0x00, 0x00, 0x04, 0x00, 0x00, 0x00, 0xf8, 0x00, 0x00, 0x00,
  0x98, 0x00, 0x00, 0x00, 0x40, 0x00, 0x00, 0x00, 0x04, 0x00, 0x00, 0x00,
  0x82, 0xff, 0xff, 0xff, 0x1c, 0x00, 0x00, 0x00, 0x00, 0x00, 0x00, 0x09,
  0x1c, 0x00, 0x00, 0x00, 0x20, 0x00, 0x00, 0x00, 0x02, 0x00, 0x00, 0x00,
  0x00, 0x00, 0x06, 0x00, 0x08, 0x00, 0x04, 0x00, 0x06, 0x00, 0x00, 0x00,
  0x00, 0x00, 0x80, 0x3f, 0x01, 0x00, 0x00, 0x00, 0x16, 0x00, 0x00, 0x00,
  0x01, 0x00, 0x00, 0x00, 0x15, 0x00, 0x00, 0x00, 0xba, 0xff, 0xff, 0xff,
  0x20, 0x00, 0x00, 0x00, 0x00, 0x00, 0x00, 0x08, 0x20, 0x00, 0x00, 0x00,
  0x24, 0x00, 0x00, 0x00, 0x01, 0x00, 0x00, 0x00, 0x00, 0x00, 0x0a, 0x00,
  0x08, 0x00, 0x00, 0x00, 0x00, 0x00, 0x07, 0x00, 0x0a, 0x00, 0x00, 0x00,
  0x00, 0x00, 0x00, 0x01, 0x01, 0x00, 0x00, 0x00, 0x15, 0x00, 0x00, 0x00,
  0x03, 0x00, 0x00, 0x00, 0x14, 0x00, 0x00, 0x00, 0x11, 0x00, 0x00, 0x00,
  0x03, 0x00, 0x00, 0x00, 0x00, 0x00, 0x0e, 0x00, 0x1a, 0x00, 0x14, 0x00,
  0x10, 0x00, 0x0c, 0x00, 0x0b, 0x00, 0x04, 0x00, 0x0e, 0x00, 0x00, 0x00,
  0x20, 0x00, 0x00, 0x00, 0x00, 0x00, 0x00, 0x08, 0x20, 0x00, 0x00, 0x00,
  0x24, 0x00, 0x00, 0x00, 0x01, 0x00, 0x00, 0x00, 0x00, 0x00, 0x0a, 0x00,
  0x08, 0x00, 0x07, 0x00, 0x00, 0x00, 0x06, 0x00, 0x0a, 0x00, 0x00, 0x00,
  0x00, 0x00, 0x01, 0x01, 0x01, 0x00, 0x00, 0x00, 0x14, 0x00, 0x00, 0x00,
  0x03, 0x00, 0x00, 0x00, 0x13, 0x00, 0x00, 0x00, 0x10, 0x00, 0x00, 0x00,
  0x02, 0x00, 0x00, 0x00, 0x00, 0x00, 0x16, 0x00, 0x18, 0x00, 0x00, 0x00,
  0x14, 0x00, 0x10, 0x00, 0x0f, 0x00, 0x08, 0x00, 0x00, 0x00, 0x00, 0x00,
  0x00, 0x00, 0x04, 0x00, 0x16, 0x00, 0x00, 0x00, 0x14, 0x00, 0x00, 0x00,
  0x1c, 0x00, 0x00, 0x00, 0x00, 0x00, 0x00, 0x47, 0x20, 0x00, 0x00, 0x00,
  0x24, 0x00, 0x00, 0x00, 0x00, 0x00, 0x00, 0x00, 0x08, 0x00, 0x0c, 0x00,
  0x0b, 0x00, 0x04, 0x00, 0x08, 0x00, 0x00, 0x00, 0x00, 0x00, 0x20, 0x41,
  0x00, 0x00, 0x00, 0x04, 0x01, 0x00, 0x00, 0x00, 0x13, 0x00, 0x00, 0x00,
  0x18, 0x00, 0x00, 0x00, 0x00, 0x00, 0x00, 0x00, 0x0f, 0x00, 0x00, 0x00,
  0x0e, 0x00, 0x00, 0x00, 0x0d, 0x00, 0x00, 0x00, 0x0c, 0x00, 0x00, 0x00,
  0x07, 0x00, 0x00, 0x00, 0x06, 0x00, 0x00, 0x00, 0x05, 0x00, 0x00, 0x00,
  0x04, 0x00, 0x00, 0x00, 0xff, 0xff, 0xff, 0xff, 0xff, 0xff, 0xff, 0xff,
  0xff, 0xff, 0xff, 0xff, 0x0b, 0x00, 0x00, 0x00, 0x0a, 0x00, 0x00, 0x00,
  0x09, 0x00, 0x00, 0x00, 0x08, 0x00, 0x00, 0x00, 0xff, 0xff, 0xff, 0xff,
  0xff, 0xff, 0xff, 0xff, 0x01, 0x00, 0x00, 0x00, 0x12, 0x00, 0x00, 0x00,
  0xff, 0xff, 0xff, 0xff, 0xff, 0xff, 0xff, 0xff, 0xff, 0xff, 0xff, 0xff,
  0xff, 0xff, 0xff, 0xff, 0x01, 0x00, 0x00, 0x00, 0x16, 0x00, 0x00, 0x00,
  0x01, 0x00, 0x00, 0x00, 0x00, 0x00, 0x00, 0x00, 0x17, 0x00, 0x00, 0x00,
  0xc0, 0x06, 0x00, 0x00, 0x60, 0x06, 0x00, 0x00, 0xf0, 0x05, 0x00, 0x00,
  0x98, 0x05, 0x00, 0x00, 0x58, 0x05, 0x00, 0x00, 0x18, 0x05, 0x00, 0x00,
  0xd8, 0x04, 0x00, 0x00, 0x98, 0x04, 0x00, 0x00, 0x5c, 0x04, 0x00, 0x00,
  0x20, 0x04, 0x00, 0x00, 0xe4, 0x03, 0x00, 0x00, 0xa8, 0x03, 0x00, 0x00,
  0x68, 0x03, 0x00, 0x00, 0x28, 0x03, 0x00, 0x00, 0xe4, 0x02, 0x00, 0x00,
  0xa0, 0x02, 0x00, 0x00, 0x48, 0x02, 0x00, 0x00, 0xf0, 0x01, 0x00, 0x00,
  0xa8, 0x01, 0x00, 0x00, 0x50, 0x01, 0x00, 0x00, 0xc4, 0x00, 0x00, 0x00,
  0x54, 0x00, 0x00, 0x00, 0x04, 0x00, 0x00, 0x00, 0xb2, 0xf9, 0xff, 0xff,
  0x00, 0x00, 0x00, 0x01, 0x10, 0x00, 0x00, 0x00, 0x10, 0x00, 0x00, 0x00,
  0x17, 0x00, 0x00, 0x00, 0x28, 0x00, 0x00, 0x00, 0x9c, 0xf9, 0xff, 0xff,
  0x19, 0x00, 0x00, 0x00, 0x53, 0x74, 0x61, 0x74, 0x65, 0x66, 0x75, 0x6c,
  0x50, 0x61, 0x72, 0x74, 0x69, 0x74, 0x69, 0x6f, 0x6e, 0x65, 0x64, 0x43,
  0x61, 0x6c, 0x6c, 0x3a, 0x30, 0x00, 0x00, 0x00, 0x03, 0x00, 0x00, 0x00,
  0x01, 0x00, 0x00, 0x00, 0x1e, 0x00, 0x00, 0x00, 0x02, 0x00, 0x00, 0x00,
  0xfe, 0xf9, 0xff, 0xff, 0x00, 0x00, 0x00, 0x01, 0x10, 0x00, 0x00, 0x00,
  0x10, 0x00, 0x00, 0x00, 0x16, 0x00, 0x00, 0x00, 0x48, 0x00, 0x00, 0x00,
  0xe8, 0xf9, 0xff, 0xff, 0x3b, 0x00, 0x00, 0x00, 0x73, 0x65, 0x71, 0x75,
  0x65, 0x6e, 0x74, 0x69, 0x61, 0x6c, 0x5f, 0x33, 0x2f, 0x64, 0x65, 0x6e,
  0x73, 0x65, 0x5f, 0x37, 0x2f, 0x54, 0x65, 0x6e, 0x73, 0x6f, 0x72, 0x64,
  0x6f, 0x74, 0x3b, 0x73, 0x65, 0x71, 0x75, 0x65, 0x6e, 0x74, 0x69, 0x61,
  0x6c, 0x5f, 0x33, 0x2f, 0x64, 0x65, 0x6e, 0x73, 0x65, 0x5f, 0x37, 0x2f,
  0x42, 0x69, 0x61, 0x73, 0x41, 0x64, 0x64, 0x00, 0x03, 0x00, 0x00, 0x00,
  0x01, 0x00, 0x00, 0x00, 0x1e, 0x00, 0x00, 0x00, 0x02, 0x00, 0x00, 0x00,
  0x6a, 0xfa, 0xff, 0xff, 0x00, 0x00, 0x00, 0x01, 0x10, 0x00, 0x00, 0x00,
  0x10, 0x00, 0x00, 0x00, 0x15, 0x00, 0x00, 0x00, 0x64, 0x00, 0x00, 0x00,
  0x54, 0xfa, 0xff, 0xff, 0x55, 0x00, 0x00, 0x00, 0x73, 0x65, 0x71, 0x75,
  0x65, 0x6e, 0x74, 0x69, 0x61, 0x6c, 0x5f, 0x33, 0x2f, 0x64, 0x65, 0x6e,
  0x73, 0x65, 0x5f, 0x36, 0x2f, 0x54, 0x65, 0x6e, 0x73, 0x6f, 0x72, 0x64,
  0x6f, 0x74, 0x3b, 0x73, 0x65, 0x71, 0x75, 0x65, 0x6e, 0x74, 0x69, 0x61,
  0x6c, 0x5f, 0x33, 0x2f, 0x64, 0x65, 0x6e, 0x73, 0x65, 0x5f, 0x36, 0x2f,
  0x52, 0x65, 0x6c, 0x75, 0x3b, 0x73, 0x65, 0x71, 0x75, 0x65, 0x6e, 0x74,
  0x69, 0x61, 0x6c, 0x5f, 0x33, 0x2f, 0x64, 0x65, 0x6e, 0x73, 0x65, 0x5f,
  0x36, 0x2f, 0x42, 0x69, 0x61, 0x73, 0x41, 0x64, 0x64, 0x00, 0x00, 0x00,
  0x03, 0x00, 0x00, 0x00, 0x01, 0x00, 0x00, 0x00, 0x1e, 0x00, 0x00, 0x00,
  0x0a, 0x00, 0x00, 0x00, 0xf2, 0xfa, 0xff, 0xff, 0x00, 0x00, 0x00, 0x01,
  0x10, 0x00, 0x00, 0x00, 0x10, 0x00, 0x00, 0x00, 0x14, 0x00, 0x00, 0x00,
  0x30, 0x00, 0x00, 0x00, 0xdc, 0xfa, 0xff, 0xff, 0x20, 0x00, 0x00, 0x00,
  0x74, 0x66, 0x6c, 0x2e, 0x75, 0x6e, 0x69, 0x64, 0x69, 0x72, 0x65, 0x63,
  0x74, 0x69, 0x6f, 0x6e, 0x61, 0x6c, 0x5f, 0x73, 0x65, 0x71, 0x75, 0x65,
  0x6e, 0x63, 0x65, 0x5f, 0x6c, 0x73, 0x74, 0x6d, 0x00, 0x00, 0x00, 0x00,
  0x03, 0x00, 0x00, 0x00, 0x01, 0x00, 0x00, 0x00, 0x1e, 0x00, 0x00, 0x00,
  0x10, 0x00, 0x00, 0x00, 0xa2, 0xfb, 0xff, 0xff, 0x00, 0x00, 0x01, 0x01,
  0x0c, 0x00, 0x00, 0x00, 0x0c, 0x00, 0x00, 0x00, 0x28, 0x00, 0x00, 0x00,
  0x2c, 0xfb, 0xff, 0xff, 0x1a, 0x00, 0x00, 0x00, 0x73, 0x65, 0x71, 0x75,
  0x65, 0x6e, 0x74, 0x69, 0x61, 0x6c, 0x5f, 0x33, 0x2f, 0x6c, 0x73, 0x74,
  0x6d, 0x5f, 0x33, 0x2f, 0x7a, 0x65, 0x72, 0x6f, 0x73, 0x31, 0x00, 0x00,
  0x02, 0x00, 0x00, 0x00, 0x01, 0x00, 0x00, 0x00, 0x10, 0x00, 0x00, 0x00,
  0x8a, 0xfb, 0xff, 0xff, 0x00, 0x00, 0x00, 0x01, 0x10, 0x00, 0x00, 0x00,
  0x10, 0x00, 0x00, 0x00, 0x12, 0x00, 0x00, 0x00, 0x34, 0x00, 0x00, 0x00,
  0x74, 0xfb, 0xff, 0xff, 0x25, 0x00, 0x00, 0x00, 0x73, 0x65, 0x71, 0x75,
  0x65, 0x6e, 0x74, 0x69, 0x61, 0x6c, 0x5f, 0x33, 0x2f, 0x64, 0x65, 0x6e,
  0x73, 0x65, 0x5f, 0x37, 0x2f, 0x54, 0x65, 0x6e, 0x73, 0x6f, 0x72, 0x64,
  0x6f, 0x74, 0x2f, 0x4d, 0x61, 0x74, 0x4d, 0x75, 0x6c, 0x00, 0x00, 0x00,
  0x02, 0x00, 0x00, 0x00, 0x02, 0x00, 0x00, 0x00, 0x0a, 0x00, 0x00, 0x00,
  0xde, 0xfb, 0xff, 0xff, 0x00, 0x00, 0x00, 0x01, 0x10, 0x00, 0x00, 0x00,
  0x10, 0x00, 0x00, 0x00, 0x11, 0x00, 0x00, 0x00, 0x34, 0x00, 0x00, 0x00,
  0xc8, 0xfb, 0xff, 0xff, 0x25, 0x00, 0x00, 0x00, 0x73, 0x65, 0x71, 0x75,
  0x65, 0x6e, 0x74, 0x69, 0x61, 0x6c, 0x5f, 0x33, 0x2f, 0x64, 0x65, 0x6e,
  0x73, 0x65, 0x5f, 0x36, 0x2f, 0x54, 0x65, 0x6e, 0x73, 0x6f, 0x72, 0x64,
  0x6f, 0x74, 0x2f, 0x4d, 0x61, 0x74, 0x4d, 0x75, 0x6c, 0x00, 0x00, 0x00,
  0x02, 0x00, 0x00, 0x00, 0x0a, 0x00, 0x00, 0x00, 0x10, 0x00, 0x00, 0x00,
  0x32, 0xfc, 0xff, 0xff, 0x00, 0x00, 0x00, 0x01, 0x10, 0x00, 0x00, 0x00,
  0x10, 0x00, 0x00, 0x00, 0x10, 0x00, 0x00, 0x00, 0x20, 0x00, 0x00, 0x00,
  0x1c, 0xfc, 0xff, 0xff, 0x10, 0x00, 0x00, 0x00, 0x61, 0x72, 0x69, 0x74,
  0x68, 0x2e, 0x63, 0x6f, 0x6e, 0x73, 0x74, 0x61, 0x6e, 0x74, 0x31, 0x31,
  0x00, 0x00, 0x00, 0x00, 0x02, 0x00, 0x00, 0x00, 0x10, 0x00, 0x00, 0x00,
  0x05, 0x00, 0x00, 0x00, 0x72, 0xfc, 0xff, 0xff, 0x00, 0x00, 0x00, 0x01,
  0x10, 0x00, 0x00, 0x00, 0x10, 0x00, 0x00, 0x00, 0x0f, 0x00, 0x00, 0x00,
  0x20, 0x00, 0x00, 0x00, 0x5c, 0xfc, 0xff, 0xff, 0x10, 0x00, 0x00, 0x00,
  0x61, 0x72, 0x69, 0x74, 0x68, 0x2e, 0x63, 0x6f, 0x6e, 0x73, 0x74, 0x61,
  0x6e, 0x74, 0x31, 0x30, 0x00, 0x00, 0x00, 0x00, 0x02, 0x00, 0x00, 0x00,
  0x10, 0x00, 0x00, 0x00, 0x05, 0x00, 0x00, 0x00, 0xb2, 0xfc, 0xff, 0xff,
  0x00, 0x00, 0x00, 0x01, 0x10, 0x00, 0x00, 0x00, 0x10, 0x00, 0x00, 0x00,
  0x0e, 0x00, 0x00, 0x00, 0x1c, 0x00, 0x00, 0x00, 0x9c, 0xfc, 0xff, 0xff,
  0x0f, 0x00, 0x00, 0x00, 0x61, 0x72, 0x69, 0x74, 0x68, 0x2e, 0x63, 0x6f,
  0x6e, 0x73, 0x74, 0x61, 0x6e, 0x74, 0x39, 0x00, 0x02, 0x00, 0x00, 0x00,
  0x10, 0x00, 0x00, 0x00, 0x05, 0x00, 0x00, 0x00, 0xee, 0xfc, 0xff, 0xff,
  0x00, 0x00, 0x00, 0x01, 0x10, 0x00, 0x00, 0x00, 0x10, 0x00, 0x00, 0x00,
  0x0d, 0x00, 0x00, 0x00, 0x1c, 0x00, 0x00, 0x00, 0xd8, 0xfc, 0xff, 0xff,
  0x0f, 0x00, 0x00, 0x00, 0x61, 0x72, 0x69, 0x74, 0x68, 0x2e, 0x63, 0x6f,
  0x6e, 0x73, 0x74, 0x61, 0x6e, 0x74, 0x38, 0x00, 0x02, 0x00, 0x00, 0x00,
  0x10, 0x00, 0x00, 0x00, 0x05, 0x00, 0x00, 0x00, 0x2a, 0xfd, 0xff, 0xff,
  0x00, 0x00, 0x00, 0x01, 0x10, 0x00, 0x00, 0x00, 0x10, 0x00, 0x00, 0x00,
  0x0c, 0x00, 0x00, 0x00, 0x1c, 0x00, 0x00, 0x00, 0x14, 0xfd, 0xff, 0xff,
  0x0f, 0x00, 0x00, 0x00, 0x61, 0x72, 0x69, 0x74, 0x68, 0x2e, 0x63, 0x6f,
  0x6e, 0x73, 0x74, 0x61, 0x6e, 0x74, 0x37, 0x00, 0x01, 0x00, 0x00, 0x00,
  0x10, 0x00, 0x00, 0x00, 0x62, 0xfd, 0xff, 0xff, 0x00, 0x00, 0x00, 0x01,
  0x10, 0x00, 0x00, 0x00, 0x10, 0x00, 0x00, 0x00, 0x0b, 0x00, 0x00, 0x00,
  0x1c, 0x00, 0x00, 0x00, 0x4c, 0xfd, 0xff, 0xff, 0x0f, 0x00, 0x00, 0x00,
  0x61, 0x72, 0x69, 0x74, 0x68, 0x2e, 0x63, 0x6f, 0x6e, 0x73, 0x74, 0x61,
  0x6e, 0x74, 0x36, 0x00, 0x01, 0x00, 0x00, 0x00, 0x10, 0x00, 0x00, 0x00,
  0x9a, 0xfd, 0xff, 0xff, 0x00, 0x00, 0x00, 0x01, 0x10, 0x00, 0x00, 0x00,
  0x10, 0x00, 0x00, 0x00, 0x0a, 0x00, 0x00, 0x00, 0x1c, 0x00, 0x00, 0x00,
  0x84, 0xfd, 0xff, 0xff, 0x0f, 0x00, 0x00, 0x00, 0x61, 0x72, 0x69, 0x74,
  0x68, 0x2e, 0x63, 0x6f, 0x6e, 0x73, 0x74, 0x61, 0x6e, 0x74, 0x35, 0x00,
  0x01, 0x00, 0x00, 0x00, 0x10, 0x00, 0x00, 0x00, 0xd2, 0xfd, 0xff, 0xff,
  0x00, 0x00, 0x00, 0x01, 0x10, 0x00, 0x00, 0x00, 0x10, 0x00, 0x00, 0x00,
  0x09, 0x00, 0x00, 0x00, 0x1c, 0x00, 0x00, 0x00, 0xbc, 0xfd, 0xff, 0xff,
  0x0f, 0x00, 0x00, 0x00, 0x61, 0x72, 0x69, 0x74, 0x68, 0x2e, 0x63, 0x6f,
  0x6e, 0x73, 0x74, 0x61, 0x6e, 0x74, 0x34, 0x00, 0x01, 0x00, 0x00, 0x00,
  0x10, 0x00, 0x00, 0x00, 0x0a, 0xfe, 0xff, 0xff, 0x00, 0x00, 0x00, 0x01,
  0x10, 0x00, 0x00, 0x00, 0x10, 0x00, 0x00, 0x00, 0x08, 0x00, 0x00, 0x00,
  0x1c, 0x00, 0x00, 0x00, 0xf4, 0xfd, 0xff, 0xff, 0x0f, 0x00, 0x00, 0x00,
  0x61, 0x72, 0x69, 0x74, 0x68, 0x2e, 0x63, 0x6f, 0x6e, 0x73, 0x74, 0x61,
  0x6e, 0x74, 0x33, 0x00, 0x02, 0x00, 0x00, 0x00, 0x10, 0x00, 0x00, 0x00,
  0x10, 0x00, 0x00, 0x00, 0x46, 0xfe, 0xff, 0xff, 0x00, 0x00, 0x00, 0x01,
  0x10, 0x00, 0x00, 0x00, 0x10, 0x00, 0x00, 0x00, 0x07, 0x00, 0x00, 0x00,
  0x1c, 0x00, 0x00, 0x00, 0x30, 0xfe, 0xff, 0xff, 0x0f, 0x00, 0x00, 0x00,
  0x61, 0x72, 0x69, 0x74, 0x68, 0x2e, 0x63, 0x6f, 0x6e, 0x73, 0x74, 0x61,
  0x6e, 0x74, 0x32, 0x00, 0x02, 0x00, 0x00, 0x00, 0x10, 0x00, 0x00, 0x00,
  0x10, 0x00, 0x00, 0x00, 0x82, 0xfe, 0xff, 0xff, 0x00, 0x00, 0x00, 0x01,
  0x10, 0x00, 0x00, 0x00, 0x10, 0x00, 0x00, 0x00, 0x06, 0x00, 0x00, 0x00,
  0x1c, 0x00, 0x00, 0x00, 0x6c, 0xfe, 0xff, 0xff, 0x0f, 0x00, 0x00, 0x00,
  0x61, 0x72, 0x69, 0x74, 0x68, 0x2e, 0x63, 0x6f, 0x6e, 0x73, 0x74, 0x61,
  0x6e, 0x74, 0x31, 0x00, 0x02, 0x00, 0x00, 0x00, 0x10, 0x00, 0x00, 0x00,
  0x10, 0x00, 0x00, 0x00, 0xbe, 0xfe, 0xff, 0xff, 0x00, 0x00, 0x00, 0x01,
  0x10, 0x00, 0x00, 0x00, 0x10, 0x00, 0x00, 0x00, 0x05, 0x00, 0x00, 0x00,
  0x1c, 0x00, 0x00, 0x00, 0xa8, 0xfe, 0xff, 0xff, 0x0e, 0x00, 0x00, 0x00,
  0x61, 0x72, 0x69, 0x74, 0x68, 0x2e, 0x63, 0x6f, 0x6e, 0x73, 0x74, 0x61,
  0x6e, 0x74, 0x00, 0x00, 0x02, 0x00, 0x00, 0x00, 0x10, 0x00, 0x00, 0x00,
  0x10, 0x00, 0x00, 0x00, 0xfa, 0xfe, 0xff, 0xff, 0x00, 0x00, 0x00, 0x01,
  0x10, 0x00, 0x00, 0x00, 0x10, 0x00, 0x00, 0x00, 0x04, 0x00, 0x00, 0x00,
  0x38, 0x00, 0x00, 0x00, 0xe4, 0xfe, 0xff, 0xff, 0x2b, 0x00, 0x00, 0x00,
  0x73, 0x65, 0x71, 0x75, 0x65, 0x6e, 0x74, 0x69, 0x61, 0x6c, 0x5f, 0x33,
  0x2f, 0x64, 0x65, 0x6e, 0x73, 0x65, 0x5f, 0x37, 0x2f, 0x42, 0x69, 0x61,
  0x73, 0x41, 0x64, 0x64, 0x2f, 0x52, 0x65, 0x61, 0x64, 0x56, 0x61, 0x72,
  0x69, 0x61, 0x62, 0x6c, 0x65, 0x4f, 0x70, 0x00, 0x01, 0x00, 0x00, 0x00,
  0x02, 0x00, 0x00, 0x00, 0x4e, 0xff, 0xff, 0xff, 0x00, 0x00, 0x00, 0x01,
  0x10, 0x00, 0x00, 0x00, 0x10, 0x00, 0x00, 0x00, 0x03, 0x00, 0x00, 0x00,
  0x38, 0x00, 0x00, 0x00, 0x38, 0xff, 0xff, 0xff, 0x2b, 0x00, 0x00, 0x00,
  0x73, 0x65, 0x71, 0x75, 0x65, 0x6e, 0x74, 0x69, 0x61, 0x6c, 0x5f, 0x33,
  0x2f, 0x64, 0x65, 0x6e, 0x73, 0x65, 0x5f, 0x36, 0x2f, 0x42, 0x69, 0x61,
  0x73, 0x41, 0x64, 0x64, 0x2f, 0x52, 0x65, 0x61, 0x64, 0x56, 0x61, 0x72,
  0x69, 0x61, 0x62, 0x6c, 0x65, 0x4f, 0x70, 0x00, 0x01, 0x00, 0x00, 0x00,
  0x0a, 0x00, 0x00, 0x00, 0x00, 0x00, 0x16, 0x00, 0x14, 0x00, 0x10, 0x00,
  0x00, 0x00, 0x00, 0x00, 0x0c, 0x00, 0x08, 0x00, 0x07, 0x00, 0x00, 0x00,
  0x00, 0x00, 0x06, 0x00, 0x16, 0x00, 0x00, 0x00, 0x00, 0x00, 0x01, 0x01,
  0x0c, 0x00, 0x00, 0x00, 0x0c, 0x00, 0x00, 0x00, 0x28, 0x00, 0x00, 0x00,
  0xa0, 0xff, 0xff, 0xff, 0x19, 0x00, 0x00, 0x00, 0x73, 0x65, 0x71, 0x75,
  0x65, 0x6e, 0x74, 0x69, 0x61, 0x6c, 0x5f, 0x33, 0x2f, 0x6c, 0x73, 0x74,
  0x6d, 0x5f, 0x33, 0x2f, 0x7a, 0x65, 0x72, 0x6f, 0x73, 0x00, 0x00, 0x00,
  0x02, 0x00, 0x00, 0x00, 0x01, 0x00, 0x00, 0x00, 0x10, 0x00, 0x00, 0x00,
  0x00, 0x00, 0x16, 0x00, 0x18, 0x00, 0x14, 0x00, 0x00, 0x00, 0x10, 0x00,
  0x0c, 0x00, 0x08, 0x00, 0x00, 0x00, 0x00, 0x00, 0x00, 0x00, 0x07, 0x00,
  0x16, 0x00, 0x00, 0x00, 0x00, 0x00, 0x00, 0x01, 0x14, 0x00, 0x00, 0x00,
  0x14, 0x00, 0x00, 0x00, 0x01, 0x00, 0x00, 0x00, 0x2c, 0x00, 0x00, 0x00,
  0x04, 0x00, 0x04, 0x00, 0x04, 0x00, 0x00, 0x00, 0x19, 0x00, 0x00, 0x00,
  0x73, 0x65, 0x72, 0x76, 0x69, 0x6e, 0x67, 0x5f, 0x64, 0x65, 0x66, 0x61,
  0x75, 0x6c, 0x74, 0x5f, 0x69, 0x6e, 0x70, 0x75, 0x74, 0x5f, 0x34, 0x3a,
  0x30, 0x00, 0x00, 0x00, 0x03, 0x00, 0x00, 0x00, 0x01, 0x00, 0x00, 0x00,
  0x1e, 0x00, 0x00, 0x00, 0x05, 0x00, 0x00, 0x00, 0x03, 0x00, 0x00, 0x00,
  0x40, 0x00, 0x00, 0x00, 0x20, 0x00, 0x00, 0x00, 0x04, 0x00, 0x00, 0x00,
  0xd8, 0xff, 0xff, 0xff, 0x19, 0x00, 0x00, 0x00, 0x00, 0x00, 0x00, 0x19,
  0x0c, 0x00, 0x10, 0x00, 0x0f, 0x00, 0x00, 0x00, 0x08, 0x00, 0x04, 0x00,
  0x0c, 0x00, 0x00, 0x00, 0x09, 0x00, 0x00, 0x00, 0x05, 0x00, 0x00, 0x00,
  0x00, 0x00, 0x00, 0x09, 0x0c, 0x00, 0x0c, 0x00, 0x0b, 0x00, 0x00, 0x00,
  0x00, 0x00, 0x04, 0x00, 0x0c, 0x00, 0x00, 0x00, 0x2c, 0x00, 0x00, 0x00,
  0x00, 0x00, 0x00, 0x2c
};
unsigned int model_tflite_len = 9664;
